37
ee
f2
0f
c2
f4
11
10
03
f1
0a
c9
0c
f5
ef
d7
fe
fd
de
24
0e
f7
fb
06
bf
00
35
d3
e7
c6
20
00
06
d9
f0
ea
38
f9
26
26
f8
37
f7
fd
da
fa
f0
f1
22
02
fe
fa
03
0a
ed
1e
81
1e
14
e5
22
ea
30
f2
f8
f8
02
e5
04
25
0d
e3
da
05
0c
3d
32
2c
de
1c
fc
09
ce
2b
fa
1e
13
07
fe
03
15
fd
eb
d3
0f
15
00
11
0e
fb
f1
06
f4
40
18
ee
08
10
f8
fe
fb
13
f0
2d
ff
27
01
19
1e
18
11
09
e5
f9
dc
0c
0f
06
1a
fd
0b
e0
e3
21
1f
14
e4
12
03
2a
1d
07
18
21
13
ee
19
1a
09
0d
10
03
07
06
18
19
e7
d4
f0
11
fc
07
fe
15
ff
ff
07
13
03
eb
06
07
f9
09
07
2a
1b
0f
16
04
31
1b
2f
00
01
0c
f5
29
f7
1a
03
0e
0d
04
02
f3
ed
fc
ee
15
f1
d9
04
1b
ee
df
0d
fd
08
0d
e4
f0
19
f0
f6
16
ec
e9
05
df
d5
06
ee
0f
03
29
eb
fc
f3
13
14
05
f1
fd
e6
0e
e9
16
f3
ed
e4
19
10
1a
03
dc
0e
16
dd
09
eb
f3
05
01
00
1a
1c
00
e2
f3
ef
d7
ff
3b
1b
d5
e8
24
f9
10
27
00
f2
28
16
20
05
27
f0
f6
24
ed
fd
ef
02
c8
09
e8
16
b5
fc
eb
e9
24
04
44
ed
03
09
17
22
00
18
12
32
f6
ef
06
1a
f3
d4
15
c2
1b
fc
0c
0e
06
f8
1c
22
ec
e8
e5
e7
2a
0c
05
bc
1a
20
2a
fd
02
15
17
fc
fe
12
2e
17
0e
05
fe
fa
ee
0b
e8
c5
e3
f2
06
12
18
04
0f
09
14
ec
24
12
0a
1f
13
0a
12
27
28
18
1c
e8
30
15
1a
0d
0f
d1
18
06
03
02
20
09
12
c6
e9
db
07
e5
19
fd
0f
d6
05
e9
38
19
1d
f1
1d
04
f1
f9
f2
ff
02
0b
fc
fe
f1
e0
1e
e5
f7
f4
fa
02
48
0a
fd
ff
f4
03
0d
ed
f7
e0
1f
2c
df
13
09
04
34
f5
18
de
16
0b
0b
ea
fe
ee
00
f0
0a
9a
0e
04
e3
df
fb
ce
fb
fc
28
19
ef
16
fa
ea
12
d5
e8
ee
16
17
ef
fa
18
db
e8
ed
f5
04
f4
02
d9
19
11
df
fc
0f
09
26
14
ef
19
de
2c
ec
0d
e0
0e
ea
0e
05
fa
f0
1d
05
e9
f4
1f
e1
06
f4
d0
ff
ea
0a
14
f6
00
03
12
ee
03
03
05
05
05
11
e9
e7
e8
f8
e7
07
f0
15
0d
0e
00
e6
f3
f9
15
f3
fd
e2
e8
1b
05
04
11
e4
f2
01
fd
1c
29
f7
f1
fc
f7
f9
0e
0f
fe
00
0b
12
0c
20
e6
05
00
cf
f6
0c
d3
fd
fb
08
10
05
12
ff
f5
e1
0d
12
34
28
ed
f4
36
fe
08
2d
26
da
14
1d
ee
03
1c
0c
12
f5
f2
15
08
dc
dd
06
fe
e9
0e
13
01
18
1f
03
23
00
fb
1f
ea
15
ed
28
04
0d
eb
e6
01
20
fb
36
0e
cc
1d
dd
ef
f2
2c
17
10
14
16
0a
d9
01
1d
fb
1d
d6
18
f2
e9
24
05
fe
00
00
ed
fe
04
19
de
ed
f1
d4
fc
f0
dc
b3
df
0f
f0
ec
21
f9
e0
26
1b
ef
35
ff
10
f3
0b
fe
e3
f0
10
0d
16
0d
14
08
0a
fd
1a
d7
07
e2
d7
11
14
02
00
14
02
fb
02
f2
07
f9
15
bf
ea
e6
09
18
e0
ea
02
07
dc
19
f2
fc
09
17
ed
19
ea
fc
0f
c3
c0
01
0e
11
dc
f1
07
de
02
12
0d
1c
04
24
0e
1f
fd
e2
0e
36
18
f5
1d
05
f4
d5
f5
9c
19
e4
f8
fb
0d
f8
29
f5
e8
ed
f8
0a
1b
1e
1a
c6
1c
09
0e
0d
fe
0f
2d
09
f4
0b
08
15
19
07
06
00
ef
09
0c
fe
f3
e1
fb
ee
1a
12
17
e7
fa
f9
09
fc
11
22
0d
24
fb
02
30
09
15
0f
19
fb
1c
10
06
26
00
ec
01
09
0b
f2
0f
07
ed
f5
ef
dc
1c
fa
06
fe
12
15
17
f3
12
02
ff
ff
11
0b
e2
0d
f0
f2
13
f2
01
05
0e
d4
d8
09
f3
ee
ce
f5
f8
cb
f9
f3
fa
fa
f9
ce
09
18
06
f5
e9
f9
02
09
25
fb
f1
07
06
94
13
df
ee
14
ea
e5
fc
45
1b
10
fc
df
ff
1b
07
00
af
ee
ca
ea
e9
03
e3
d2
dc
32
19
ef
ee
0b
ea
ac
e7
04
a7
e0
c8
25
ff
fe
eb
ef
c8
19
01
42
1d
da
0f
10
c5
08
53
01
f0
62
0b
03
04
f9
0a
d6
2c
b2
dc
14
da
05
d3
06
28
be
fd
dc
f9
f5
27
01
fc
f9
fc
fa
3a
1d
0f
fc
10
09
09
0d
e1
09
fd
13
e7
da
e9
fe
eb
e5
db
e9
ea
05
2a
e5
07
eb
12
15
16
d2
d7
b1
27
10
e6
f7
ff
04
27
e7
f4
e8
1c
1c
ed
b9
f9
f7
0e
e1
1b
ac
fe
22
ea
db
e4
cb
f0
f0
2b
08
ea
f2
f9
10
1a
03
fa
de
3b
07
2c
16
2b
02
17
11
e0
21
e2
11
c1
1a
ed
ff
d4
18
e6
12
09
06
12
d2
1e
16
1b
1f
00
23
03
27
0d
0d
12
0a
1a
f3
f9
dc
3d
0e
0a
2f
fa
06
f8
16
e2
04
f4
dd
22
0a
04
e7
ea
de
25
23
1e
1d
1a
d8
fa
db
18
1b
e3
27
f6
d3
15
12
d5
01
e1
07
ee
f7
09
10
e4
ec
ee
f2
25
f4
f9
df
1a
06
d7
14
06
e3
10
02
25
03
0a
2c
ea
ed
f6
ea
1f
1a
19
da
eb
30
f1
f2
04
e4
16
18
40
28
cb
12
17
09
fa
0c
e5
dc
10
fd
ec
11
38
e2
0c
26
05
f9
10
f7
d6
15
e4
05
cc
0d
be
08
09
29
3e
ef
06
f8
1f
f1
14
3b
dc
14
f2
f2
04
34
f5
d5
15
a0
30
f4
fc
0e
ec
29
13
11
14
f0
ed
fa
05
05
1a
03
1f
f9
1d
1c
23
0a
f8
d7
1a
f2
f6
e6
fd
e8
04
cc
09
f0
fb
f5
cc
fc
12
00
00
01
df
00
f9
01
0a
f7
ed
00
1c
1e
13
14
f5
15
19
e8
fc
fb
ec
26
f1
e1
11
e7
e9
01
19
e3
01
03
11
e2
e5
d3
01
f8
fb
fd
04
0a
00
f2
fa
fa
f2
f0
e5
00
00
10
eb
03
ed
fc
04
f3
1f
e8
df
03
e7
13
db
05
0b
ed
fb
1c
05
08
ee
22
fe
19
11
02
ec
29
e2
eb
08
e7
ef
11
eb
85
fb
f7
e0
e3
e8
02
16
20
10
fa
f1
0a
fa
15
18
10
e2
05
d3
eb
e1
1d
f1
e6
20
eb
01
03
15
04
fc
e4
f1
f8
e7
d8
03
fd
f3
f3
00
02
e0
06
0b
f2
0a
ec
20
f5
f0
ee
1e
fb
e4
10
e7
05
fc
23
e5
e7
0d
c1
e7
09
e2
03
0e
1c
fa
06
00
e6
07
b8
07
f6
04
d9
e2
de
0f
dd
f1
d5
f7
f2
c0
30
e0
07
e2
07
e8
ff
e4
0b
e6
cd
c6
ea
0c
09
ea
ed
e6
e4
de
2e
ff
00
e7
23
f4
2e
01
df
e9
13
12
0e
f7
fb
0d
c1
09
a1
08
e8
0c
00
c1
d0
11
da
ff
df
05
d7
11
f9
ea
b3
2b
e6
d4
17
e5
ee
24
ed
f4
e5
0d
f8
ca
2b
16
07
02
0d
dd
da
f3
cd
0b
d3
5e
eb
06
08
f3
35
2e
15
de
19
de
12
12
e4
26
e8
34
17
13
c2
20
01
32
f8
c2
e8
18
02
d8
e2
00
00
11
e8
ed
fb
0e
fa
f5
22
01
fc
06
d8
07
24
da
f9
f2
fe
ee
e2
e5
f5
f8
ea
0d
08
fb
e0
04
eb
14
0b
d4
02
09
cb
1d
f5
f2
ce
e3
09
08
11
fa
fb
d2
e2
f1
f8
06
da
e5
08
12
95
07
ff
fe
e8
0d
f8
f7
07
0b
de
f1
ef
0b
1d
0b
cc
f4
05
fe
2e
13
f1
21
d9
f4
ee
1b
12
10
04
eb
0d
0d
f3
05
fe
cc
e8
18
08
2a
0b
f3
0c
10
fe
fe
ec
df
1e
ed
f7
f5
11
10
d4
14
0b
12
0c
27
0d
12
c0
00
17
0d
d3
0e
04
eb
49
04
dc
0d
c0
05
06
3e
05
c2
ff
fe
07
1c
00
1d
e9
17
25
1d
12
12
f9
eb
11
eb
23
ef
03
de
1d
fc
fc
df
03
0e
f5
14
0c
2d
02
17
12
35
f2
27
03
17
19
f8
15
fc
fd
17
db
19
c5
16
11
0a
0d
f3
08
12
0e
f0
e7
11
05
e4
f2
1e
e7
01
fd
f6
fe
09
fa
0b
00
f2
1d
e5
eb
f8
0b
0b
32
ef
11
32
0d
ec
07
01
0d
0b
ed
d3
08
1a
0b
17
03
0d
11
1e
10
06
19
f9
1e
16
fd
19
09
16
d2
0f
e9
09
dc
f1
1e
f6
eb
0c
23
ea
10
e0
e6
de
dc
fc
07
19
dd
0a
fa
08
fb
d9
e7
10
d5
06
07
07
05
11
cf
04
f7
ef
d9
c6
11
0e
0a
0e
13
eb
0e
15
ea
2c
1f
0f
08
f9
f9
f4
e1
09
fc
11
f4
1d
ff
df
1e
10
9e
20
00
df
15
07
27
eb
f0
19
ef
1a
f8
18
06
14
f7
fc
04
e7
04
ed
11
ef
e7
17
f8
0d
0b
e7
10
f8
f1
f6
f2
10
17
13
11
12
e7
11
02
16
00
ed
13
18
08
f6
10
16
01
fe
11
06
1b
1b
ee
ee
e7
1a
0e
0a
0c
0c
fe
ed
ff
ff
fc
f9
26
0f
0d
09
e1
e2
00
f3
05
e9
04
e8
f7
f4
ff
d7
eb
0e
13
d9
12
00
f9
09
1b
eb
1d
10
eb
e5
21
05
20
e3
e8
0b
fd
ef
ef
0c
f5
12
f3
1d
eb
08
10
f6
21
03
e9
10
0a
d6
f7
10
dd
f8
04
cc
17
eb
13
0d
18
15
37
fc
e5
13
1d
f6
e6
fa
ff
c2
06
cc
f3
df
12
e6
23
df
de
d5
f8
00
e6
0d
f4
fc
de
fa
fc
0b
1e
18
fc
be
f2
00
4c
33
1f
f4
05
09
d2
24
02
e0
1a
56
e9
17
dd
f4
b3
3b
c6
d2
02
f9
0b
c5
d0
04
13
ec
c3
19
d8
27
e4
28
44
db
1c
f0
fb
17
12
f1
16
fc
e1
ef
fb
e3
1a
0a
ed
f1
11
ea
ea
cb
08
0a
01
fc
f1
dd
04
0f
01
00
fb
10
22
fd
ba
03
f9
ce
21
08
18
02
ef
f3
f5
09
b7
e8
e2
09
04
e4
18
11
02
f5
d9
f4
ec
1c
e6
00
1d
05
f0
0a
0b
1b
fe
30
12
19
cd
02
20
08
1d
e7
19
e4
fb
1f
02
df
07
ec
ea
27
ec
16
2c
04
20
ee
06
0d
2f
0b
e3
fd
05
0a
f7
f1
ef
19
ee
19
1b
27
ee
f6
f4
0d
e4
03
d4
06
01
0f
d3
11
0b
18
27
07
02
e8
2b
31
0a
22
fd
12
f0
2b
00
26
ee
16
13
0f
f8
10
e7
05
fa
df
12
13
04
fa
eb
f1
03
00
f2
1f
fd
1b
00
38
05
0d
03
fd
e2
e9
e5
14
00
24
2a
1c
09
31
d9
20
1e
27
f3
10
f1
0f
ed
f6
13
0f
18
ef
f1
d6
05
1e
0f
f8
12
09
f6
20
ec
f1
e9
14
eb
0f
ee
ed
ec
f1
e4
f2
f1
f4
12
0f
ec
ef
0c
06
00
1a
16
e1
12
01
ff
ec
0c
e8
f0
05
e3
e9
07
09
1b
0f
e2
ff
e9
f5
14
fb
0b
00
1c
0d
e4
ff
0e
ef
f3
2f
13
cd
18
1f
f8
1e
0c
f6
e5
18
0e
f2
04
22
1d
0c
1c
e2
ff
15
f7
d8
12
0f
25
ba
09
eb
09
20
19
00
ed
ed
20
17
23
d7
12
e0
19
cb
03
02
25
15
d2
17
c0
11
f6
f7
12
fb
1d
fc
0a
0c
dd
07
e7
13
12
0d
12
fc
fc
22
0f
fe
ec
fb
0b
1f
d9
2b
f7
02
06
f6
f4
fd
fa
ce
f3
ef
01
f5
f3
2e
ed
07
f7
21
f2
db
0d
fd
1c
30
2d
e1
2f
08
fe
06
14
27
01
15
16
04
0e
3c
d8
09
00
26
09
f8
e4
fb
c6
11
eb
2f
12
1d
d1
0d
06
12
2b
34
ee
1e
f1
f6
f5
0a
03
00
fe
0a
d9
02
f4
e9
fe
f1
e9
f7
d7
2b
06
14
f4
1f
f1
fe
2b
0d
2d
28
e9
c2
21
fc
ce
de
eb
f7
e2
0c
2d
18
f6
ff
02
03
ed
1a
ba
0e
e4
01
ee
f4
ef
ff
f8
f7
16
06
15
fd
bd
17
f6
e9
fa
21
f9
ee
e4
f5
ff
ef
da
e3
02
e6
01
f2
e8
05
ef
e0
f8
0a
11
f9
fb
15
e8
ed
0b
02
0e
fc
fb
df
c0
0a
00
02
f2
d8
3c
03
f3
0c
fb
c4
e0
ea
03
f8
ed
e9
ed
f1
f3
f1
ef
1c
0a
e2
14
fd
0d
09
24
fd
0e
f4
05
ec
f1
fb
e0
eb
e3
04
10
fe
e5
fd
f8
ea
0e
e3
f3
f0
e1
e7
09
02
02
e7
e9
12
16
21
ed
02
e9
00
e9
fc
0e
ff
ef
15
04
19
01
f6
17
0e
f5
19
0c
04
d2
e9
f1
40
0b
14
2c
07
e1
65
18
09
fe
00
f2
28
e5
d0
f5
0c
02
18
f8
f7
e8
f3
d9
dd
e9
f4
e7
0d
04
12
fc
ff
ea
ee
b4
da
1c
fa
46
f3
21
e2
39
19
e7
19
1d
f1
4e
f9
be
12
f0
f6
03
1d
f5
ea
fb
eb
0b
ff
fc
1b
fa
0e
19
e7
f6
17
f0
e0
ef
01
fe
0c
f7
da
f7
ee
16
f3
d8
e4
00
d2
fc
d6
e0
e4
e7
06
08
f2
12
08
04
e5
1f
de
3a
00
f7
00
0a
f1
e2
16
f6
35
f8
fd
19
0e
de
fc
e9
07
fe
02
ed
02
0d
14
da
05
f0
0f
14
24
d5
bf
10
f8
eb
02
07
ed
e7
ed
1b
20
fc
d3
16
ef
c9
04
16
b7
cd
eb
12
fc
0e
cc
18
fb
fc
01
25
e3
fd
f1
1d
1b
24
f8
ee
26
2e
d5
e7
da
f2
f9
f5
0d
f7
07
05
c5
15
f9
2c
ef
04
ef
e7
f4
e7
05
2a
f6
f9
18
04
2b
14
09
fb
21
0c
fb
ff
27
22
fd
10
19
09
03
ed
ee
f3
da
f1
eb
f7
25
ed
0e
01
f2
f0
f1
10
12
05
2c
16
e7
0c
06
0f
16
12
08
21
1a
0a
19
00
3b
f2
34
08
1a
11
e6
e7
04
fe
f6
0d
1e
f4
0e
d4
cd
0b
05
df
f3
0f
e3
13
07
e8
fc
ea
ef
db
ec
e5
ea
e9
dc
c3
e9
02
14
f9
ae
e7
04
07
16
05
f8
f8
0a
11
f6
fe
ea
12
ed
22
ce
ec
df
13
f9
1b
ff
da
0b
06
b4
f4
f3
f2
07
33
13
e3
07
eb
2b
02
12
10
be
fe
e6
0a
e1
ce
fb
d1
d5
02
fc
f7
f9
ff
eb
bc
ee
19
ea
eb
b3
0d
eb
15
d6
f2
b4
3a
ec
39
19
ea
1b
38
e0
f5
18
1b
03
62
24
18
e6
0d
00
c2
fd
c9
f5
eb
12
11
f6
36
fe
ef
fd
e8
0c
fe
1b
07
22
19
15
f4
19
15
29
f2
24
16
f6
f5
0a
0c
0d
fb
e7
bb
f1
f3
f5
d0
ce
f4
f6
fa
16
e3
00
15
fa
eb
de
fc
1a
32
e8
04
f6
05
0f
e7
cf
e5
09
d5
12
2b
04
f2
04
ec
e9
03
19
d9
10
1b
e7
e2
e3
04
f6
1c
0d
11
e6
ec
14
ed
1e
0b
df
06
07
f7
09
12
1f
fc
ea
0b
0e
01
0e
15
e6
26
eb
18
d4
ed
fb
01
16
14
04
ce
ff
fd
45
24
f5
1d
f0
37
04
e9
05
25
0f
ec
f2
e9
1b
ef
0c
13
ff
28
f3
d4
f9
e2
05
dc
28
0c
f6
24
db
05
f0
f8
f7
0c
ed
18
eb
d9
fa
f7
0b
04
e3
fa
00
05
e9
fb
ea
00
17
fd
08
eb
e5
18
f3
e6
fd
06
e3
24
dc
fb
fb
ea
f1
bd
fa
f8
13
f8
0e
25
f3
07
07
dc
17
fa
f7
e4
18
00
12
e5
f5
02
24
18
31
3c
e0
00
0d
d9
05
1c
c5
10
3b
14
f5
eb
01
e5
18
ff
0b
16
ef
d2
03
12
ef
1f
cc
04
db
19
28
0b
20
d4
e2
0f
13
19
eb
2a
cc
1a
ef
f5
0e
08
f4
d4
fd
d2
1e
f1
e3
29
06
14
f9
fe
01
f5
03
fe
09
0b
fc
12
d4
0d
21
ff
0d
1c
10
0d
01
f4
07
f1
15
f1
0e
ea
07
09
f5
e7
d6
04
03
ef
00
f4
07
fd
fa
1d
03
e7
e2
18
16
04
f5
f8
ee
0f
f8
f1
de
02
06
17
18
f4
18
02
e6
22
12
d0
f6
21
e7
d9
fd
e3
00
f9
1a
e6
be
0f
e1
f4
e1
01
f3
0c
0d
19
fa
01
db
e8
e6
b4
f1
04
d4
d5
ec
01
eb
dc
a3
12
e6
0e
f1
15
f6
05
09
31
e5
0d
e2
15
25
2f
b9
e6
df
08
1e
0d
f9
f1
0e
03
bb
04
02
1f
00
e1
f2
1c
0d
0f
fe
ed
26
22
fd
0e
ef
f5
0a
f2
f1
18
16
f6
e6
fc
0f
14
ff
ed
eb
f8
ee
e2
0a
e8
fa
11
ef
e6
fb
0d
0d
03
1c
f4
fc
f8
0b
e2
02
ff
de
0c
01
e8
e3
0a
db
e0
04
df
fc
01
e4
0f
ee
f2
ee
20
0a
ee
04
d7
ed
fc
08
d9
a0
18
e6
f5
e1
02
08
f6
f9
16
26
0d
c7
1b
04
b5
0f
29
f6
e0
16
03
e7
10
ad
04
1e
0d
e7
07
c5
2c
06
31
f3
15
17
fa
01
31
a4
01
ba
fc
05
fb
12
e4
2c
ee
cc
1e
08
2c
f2
0a
08
d5
f5
12
09
e6
dc
ca
03
10
f6
f6
06
f0
e9
e4
b9
d9
20
17
03
1b
f0
e1
16
ee
01
d6
e9
0e
07
31
26
fa
e8
25
0a
11
da
26
08
1f
00
e1
ca
da
e6
08
fd
04
0d
01
10
ea
2c
f2
12
dc
fa
e0
e3
f9
e2
f0
ee
e9
ed
08
f3
05
14
ec
de
04
ea
f0
e7
11
04
0e
01
16
15
13
e7
df
03
f1
1f
18
e7
ea
10
fc
eb
0b
ed
fd
19
e2
fe
fd
f3
fe
11
08
e5
0f
0f
09
08
d8
d4
ee
fa
eb
f6
02
e7
db
1c
ee
ea
14
02
02
ea
16
ed
11
ed
ee
01
b8
29
ee
ac
de
df
12
0b
09
f3
e8
d0
c9
f2
2c
c4
fe
f0
0b
f9
c5
02
f5
98
e1
f8
1f
ca
0d
d6
02
e4
08
cd
fc
f5
31
f8
f3
cd
d4
c0
0b
fb
04
12
25
f3
05
db
00
00
fc
fb
dd
db
01
e4
2f
e6
c5
0d
f0
ff
e1
07
36
ce
11
ed
24
0d
fe
15
f7
0f
1b
22
fa
fb
28
02
11
ee
fa
0f
eb
e7
3b
f6
fe
e1
00
02
09
16
1a
1f
03
1d
18
12
dc
09
15
e3
27
df
0f
f2
27
19
cd
15
f9
f4
de
0c
0a
01
2f
f5
2b
e8
ff
ff
e7
14
1f
06
fb
f5
0e
21
e2
1c
1b
db
db
06
eb
eb
15
07
16
ea
2d
de
fa
ec
f1
f0
0a
16
05
c4
0b
e2
f9
10
0a
fc
1e
f3
1e
18
26
ea
03
f0
0a
f2
f5
f5
f8
0f
d4
f3
f4
e3
e3
0c
13
08
f2
f6
d0
03
00
f0
cf
db
bc
f1
28
ef
18
d4
fa
22
e8
ee
ea
16
d1
d3
eb
e1
ee
f8
e6
dd
fb
1e
ef
cf
0f
03
e4
f6
ef
ef
e9
f9
f5
07
12
fb
3b
c9
b1
02
c3
01
df
ff
f4
0b
de
cc
d2
0a
07
bf
dc
f3
fa
cd
20
de
ef
11
e6
08
f2
f1
eb
06
e7
fd
01
1b
04
00
02
06
fc
0b
0d
00
ef
f5
e8
f9
15
ff
0e
01
04
13
0b
16
0c
eb
f8
19
0e
14
f2
09
e7
ee
0a
07
18
fd
f4
0c
ff
f8
fa
0d
18
0f
19
0c
04
1a
15
10
10
19
e9
04
0a
05
10
13
0d
17
fc
f3
06
d9
e7
ec
dd
ee
10
e1
fa
09
eb
e2
ea
fa
04
eb
15
f5
07
f1
dd
e6
ed
0a
14
c4
f9
e5
13
f6
f4
0d
f4
e8
ee
1b
0b
fb
0a
07
11
de
f7
03
e9
df
e6
fb
da
e3
f9
d5
1c
e8
00
14
fd
ef
03
fb
05
23
1e
f2
dc
05
12
b9
fa
c1
cd
d7
1b
e1
f4
2e
f3
cc
df
11
d8
14
10
f4
07
01
14
0e
d8
0b
f4
d8
1a
e6
32
f4
15
06
39
c7
ca
e7
03
ff
07
da
f3
05
d1
1a
e2
46
e5
f8
ef
c5
0f
d9
ef
c9
c4
f0
ff
f8
d9
05
e8
14
4e
34
f9
d6
1c
00
fe
f5
ff
f6
f3
d0
2a
fb
17
f5
0d
01
08
fb
05
e8
03
0f
dd
25
1a
f8
0a
e6
ee
da
1f
15
09
0f
dc
d6
eb
34
f7
b1
0e
0f
22
f5
10
aa
e4
ea
04
c8
f9
de
f0
f1
e1
fe
f9
fd
f9
20
03
10
06
f9
12
2d
16
05
06
0f
0a
f1
cb
f3
12
18
26
04
08
f3
0f
04
f7
ef
fa
f6
de
0d
17
f7
14
f9
cd
02
1f
2b
10
07
10
db
fe
08
f0
ec
15
11
13
00
28
e6
0b
20
04
00
e2
0e
d5
e7
c6
18
fd
f5
dc
2b
ff
fb
fc
f7
24
0c
18
25
03
1d
e6
2b
e1
e0
1d
2a
1e
e5
15
f5
05
23
15
00
13
ea
e4
04
0c
25
2d
12
e7
fa
e7
19
10
2c
f6
d3
04
0e
f3
e2
03
00
f6
fa
09
1b
0b
1a
e8
00
1e
19
0e
05
13
06
0e
fb
e8
ed
16
1b
f3
d3
f2
07
ff
e1
0a
ee
1a
0e
01
00
e6
0d
f7
19
eb
f5
02
09
04
ee
e7
ff
22
f9
e5
ec
ef
fd
fd
ec
0f
13
06
04
18
e8
1a
e1
ed
fe
0a
dc
e9
ed
f1
f3
02
e7
01
e5
0f
e1
ff
09
1c
eb
f6
04
e5
26
19
1b
2d
ed
ee
4e
02
02
0f
f8
da
19
fa
01
f5
fe
1b
16
22
22
2d
fb
e2
c8
15
16
14
f6
00
f4
21
0d
ef
06
cb
ee
bb
1d
0a
d8
36
f4
36
bf
18
e4
12
07
09
d6
10
12
eb
e0
34
09
2a
e4
fc
ef
e0
11
e1
2d
fb
20
eb
f5
17
34
1a
1c
02
07
03
ff
e5
e6
f7
22
f5
05
15
d7
20
21
ef
c7
ef
f6
e0
29
f4
0f
04
1d
f5
0a
ea
e0
0a
0f
f6
c0
2a
13
f2
ec
f5
07
13
0e
0b
01
05
1f
fe
05
23
16
ff
10
c9
fd
fd
f5
e0
20
f7
09
f1
ee
ff
19
36
1e
1d
30
07
1c
c9
0c
0b
04
13
ff
22
f4
ec
00
eb
fa
de
e9
e4
22
f8
fa
36
ee
e7
f8
19
17
47
e7
07
db
0a
00
cb
da
e7
02
e9
27
18
f1
f4
f1
00
2c
fa
ec
01
d9
e3
e5
1a
e2
00
21
04
25
f9
ff
16
0e
fb
f9
ee
08
fb
36
06
f6
fd
fd
e8
fe
02
17
1f
f2
dd
e8
d3
e4
cb
d6
e9
00
23
0c
00
f9
08
19
f7
0f
08
d5
26
f4
d4
cc
f9
e7
da
e4
18
04
ec
14
fb
ea
fa
16
e3
e2
05
f6
14
e7
16
19
1e
f0
fe
df
f1
01
f2
ee
f6
02
0f
01
14
e7
ea
ed
e5
e6
e8
f7
1a
0d
02
05
07
eb
10
c2
0f
ea
00
19
0a
f3
e7
f0
02
13
05
09
19
e1
04
ee
13
f1
f6
f4
17
05
0b
16
07
ee
17
fe
fb
19
1c
f6
01
01
d5
1d
12
0a
20
db
0e
40
12
08
1d
0f
e2
4a
02
02
20
f9
10
ed
fd
ea
0d
e7
f6
ec
07
18
e0
0b
ed
03
1e
ee
f8
f8
d8
1d
1c
20
31
ca
28
0a
35
cb
19
d6
05
ef
31
f1
de
f6
de
f5
26
01
04
fd
ba
17
fc
fa
d4
25
10
2d
09
21
16
f7
ff
fa
f4
f8
eb
f0
f0
d5
1c
fa
f1
08
13
d5
2d
1d
0e
01
db
02
fc
03
06
0a
0e
f7
cd
18
18
2c
fe
00
27
d1
0b
08
d9
e1
01
13
fd
ce
24
f8
03
08
f0
ea
f4
1d
ce
fa
45
0d
ec
fd
07
13
1f
3c
01
b3
ed
f4
e2
ff
22
f5
10
01
fd
4d
ed
13
20
14
da
06
1a
d4
e8
19
19
ea
20
00
0f
1d
0a
fd
30
e0
11
26
29
fc
f5
e4
08
d7
42
b5
ef
ac
26
07
fd
12
33
1d
f7
12
38
25
20
dd
f0
08
06
fe
01
12
f4
25
e7
00
0c
26
2b
fc
19
2b
eb
28
f8
0b
18
02
18
f1
1c
e3
16
20
09
f9
18
f6
cf
00
ff
0a
29
0c
13
1c
f7
1d
18
1c
e0
c1
26
f8
e5
fb
01
ec
29
23
0f
06
12
23
12
1f
f0
19
f5
fb
06
eb
12
11
f3
07
ff
09
e7
b2
11
e9
01
13
15
eb
fc
1c
0f
03
e3
e4
df
08
fd
19
1a
08
ef
0a
22
02
09
cf
0e
ea
24
10
07
c5
fe
02
2b
04
00
f9
00
f1
26
ce
f3
c2
f6
e9
f5
11
13
f4
07
1b
03
ec
fa
06
20
0a
2d
e8
e0
35
ff
15
34
e1
ea
05
fa
da
fd
f8
e3
f4
df
e3
f9
fe
12
03
df
24
05
fd
be
d5
0b
e5
fc
10
14
0e
47
eb
0b
d6
15
2c
f2
f1
f0
ec
fd
1b
3b
cb
19
c6
1e
10
0f
c3
be
fc
eb
f1
03
02
3a
e2
d4
e4
08
16
f4
0f
e7
20
07
e3
1a
18
27
ff
28
0e
04
0f
d2
0a
f1
f4
fd
e4
ef
ed
00
0b
fd
05
f2
e8
ce
1c
10
e2
35
0d
f3
d3
26
3a
46
02
0c
ea
f6
0f
c8
bb
f8
ef
eb
fd
07
12
f0
f1
e0
0a
15
ee
dc
05
09
f3
e5
02
f3
09
0b
0c
36
03
fa
21
0c
fd
13
fd
d8
44
04
e6
11
04
05
f5
05
08
15
04
ed
e1
18
fd
fd
0c
07
05
04
27
f9
0f
d4
ef
f4
1a
1c
d4
17
00
0b
ec
f5
da
f9
fd
21
fb
f3
00
13
07
21
03
0d
02
d2
e9
e1
e3
e4
26
fc
1a
11
f9
06
1e
2d
0e
0a
0d
ef
1c
e2
fc
18
0b
ed
e5
f8
fe
15
0e
1d
f8
df
0a
ce
ee
04
20
29
ef
ca
03
2f
2d
1e
fb
eb
cf
1a
13
d5
af
ea
13
d4
fe
33
e0
15
00
cc
ec
24
01
c9
ec
f8
f8
0b
ee
10
2b
1d
35
1e
fd
03
35
ec
fc
28
e3
ef
3c
e4
d2
fc
18
fb
f5
0e
1d
1f
ea
f5
e2
15
04
f8
d2
1b
e1
17
f4
e5
f8
dd
01
fb
2b
2b
dc
0d
04
27
b9
f2
05
10
13
05
f6
03
00
e7
f2
2d
ff
07
02
d8
f0
ec
ee
ee
22
f7
1e
f1
f6
eb
0c
05
13
0d
fd
e2
35
04
ef
11
1c
f8
17
ed
e7
1a
dc
0c
ff
fb
f4
e0
0b
f1
dd
0f
d9
ff
f9
17
21
fa
f2
fe
fa
1e
fd
cd
d9
f5
ed
0e
0b
1b
e6
e4
10
eb
eb
12
11
cd
e4
2a
01
d6
1b
d2
14
08
f6
10
d0
18
f4
11
f9
07
e1
02
2f
d6
31
00
03
f1
f3
c3
13
23
bf
16
f1
21
12
03
bf
00
05
42
0e
03
be
22
08
38
10
c9
d6
f3
d3
34
da
f7
b7
11
1b
d1
f8
0d
e9
e2
2a
fd
f7
11
e0
06
05
ed
f3
f1
19
1b
23
ff
d5
06
e3
e2
e7
0b
eb
ec
19
18
0f
f4
fd
0b
17
00
ee
1d
d8
eb
17
e1
14
ef
e7
00
11
07
00
f4
07
eb
15
0a
06
0c
0e
0f
f5
14
de
e6
d1
11
d6
ef
00
e3
01
fb
d0
11
e4
0d
f5
2c
f4
00
14
e8
05
1f
09
fa
c0
e6
00
00
d6
04
0f
09
09
03
23
e0
dc
fe
eb
f5
12
37
e6
0c
1c
24
eb
14
db
0b
0a
22
25
24
ca
de
fb
f4
fa
e8
d8
08
e7
3b
ea
0e
d6
1b
11
e9
0e
42
ff
f3
33
27
02
39
f2
f1
ec
08
f0
eb
ec
e0
0b
e1
04
0e
fa
16
01
e4
23
ee
b8
de
21
f0
e2
1f
ee
26
d9
10
21
00
dd
07
14
ff
05
f2
19
17
ee
c0
09
20
2a
21
c4
02
d7
d8
1b
e3
e0
05
0d
2f
18
0b
ec
eb
ed
f2
f8
2f
e1
1b
ca
21
ef
0b
fa
f1
0d
18
f8
da
e3
0c
e6
da
f5
fb
e4
09
f1
f5
24
0d
e6
d8
14
ec
10
fc
f7
ed
08
02
ed
08
d9
e6
02
27
f8
1e
f6
00
2a
18
f4
fc
00
1f
ea
19
f5
17
df
f2
f5
e6
0b
e4
0a
0b
03
02
ea
fc
f4
22
1a
f5
f5
05
2e
21
04
e9
be
fe
38
fc
16
e0
17
cd
2a
d8
14
1f
e4
2d
0c
ee
04
28
fc
ff
e6
05
f0
03
d0
0f
05
02
cb
ca
e5
fe
2c
20
21
36
fd
13
1c
21
99
fc
01
21
0e
03
d1
d0
07
e3
f4
30
17
13
db
f2
ed
f8
ec
fc
f4
1d
19
46
f8
f6
1b
27
1a
24
08
e0
10
cf
f9
00
f5
10
e8
16
ef
2c
1b
ec
f2
20
09
ed
0d
fc
eb
2c
16
0e
08
0d
1e
d8
34
ea
9e
ee
23
32
c5
13
e7
39
27
f2
fc
e8
23
f2
f2
07
1b
41
f2
0e
0c
07
f4
ef
1a
f6
23
ed
dd
e4
14
f3
04
08
0b
db
35
ea
0b
13
16
16
0e
11
04
12
d9
f4
1a
04
ea
19
d4
e6
fa
2b
f4
f5
08
dc
e9
fe
1c
08
e4
1c
ff
0f
cd
ed
f5
16
16
09
05
07
0f
da
fe
15
23
06
ed
9c
0d
ee
f4
fa
11
e4
22
1a
4f
14
ec
00
fe
db
ed
e6
fc
ef
de
03
e9
19
0c
eb
03
1c
24
21
f9
eb
16
97
10
0f
02
dc
cd
d5
e3
2a
ff
fc
d6
03
d4
f9
32
a7
a1
ef
2d
08
ef
f3
d9
31
f7
e7
e0
f4
eb
c9
d4
09
00
ed
fe
15
09
f7
0d
f6
ec
ed
00
ec
f7
12
15
07
eb
fc
fd
f5
ff
13
e5
0c
0a
10
f1
0f
0d
f0
ee
f4
18
01
ee
e6
15
11
f5
e6
19
e6
f4
0b
eb
0c
0a
ed
ec
00
ed
02
0e
1a
13
fe
ee
12
07
19
05
f0
f1
fd
e5
21
0a
f9
0d
fc
1b
08
c6
e7
f6
df
05
0c
dc
01
00
05
0d
03
0c
f2
e9
14
f8
0b
05
d4
01
08
f1
12
cd
f8
f8
e9
0c
e7
04
ff
17
e6
eb
0b
f7
fb
f5
20
db
f1
d7
e5
0f
e9
ff
f9
0d
f3
d9
1e
f4
f8
f8
e9
00
e3
03
01
26
03
cf
e9
c8
13
a3
2d
99
ee
f3
fc
f6
da
3b
c5
07
ed
ed
cc
ec
2d
ed
0e
1c
f4
09
14
df
ee
fd
50
db
37
07
26
2b
4f
f4
be
f8
11
c7
14
fe
0e
fb
2e
f2
be
1a
3a
e2
df
1e
f8
e9
19
f1
1d
04
fe
12
f4
08
f8
07
2d
08
0a
1b
e2
f6
08
d7
ec
06
ba
31
f7
e2
da
ef
d0
01
06
d6
b0
d8
19
04
0c
f9
ef
f0
24
eb
01
31
e2
03
16
f4
e1
0c
f5
13
09
1f
e6
23
12
03
1c
fa
ec
01
ff
06
fa
1c
16
d1
10
f4
f2
eb
02
06
fe
ef
03
31
1f
11
24
0e
dd
14
08
e1
07
0c
07
e5
1a
eb
01
fb
ee
15
df
19
1c
11
12
e5
f0
04
f2
ea
0b
38
df
ea
22
cf
f7
12
ff
0b
29
ec
f1
2a
f5
2b
26
0d
2e
dd
ec
1b
f1
fa
1d
ec
0b
1b
e0
f5
ef
08
0c
05
0c
2b
f5
23
05
22
e2
10
0e
08
09
1f
08
1a
03
05
04
de
e0
07
0f
15
ff
f9
0d
f2
f8
12
0e
e7
03
13
ff
f3
1f
f1
05
e5
18
11
fb
11
09
05
fc
f1
2d
26
24
f8
00
23
f7
05
f7
0f
0e
f7
11
04
fb
05
08
f8
01
1f
f9
07
11
0d
ed
04
ec
03
ef
ea
18
e8
0f
0a
e3
db
07
ee
12
f5
f6
f6
e1
f8
f1
eb
ee
e7
16
04
da
c8
04
0d
0b
0c
ec
fe
0b
ef
e6
0c
07
05
1f
ed
14
f7
02
db
f6
e2
e6
01
f9
fc
f1
e0
d1
fa
03
01
0d
fb
05
03
e5
e1
0a
d7
0a
00
e4
06
0b
e5
e3
fd
21
07
d4
19
e3
f9
ff
f8
2d
05
09
20
d8
e8
05
27
f7
ad
db
1a
10
0d
fb
e6
03
3b
04
1e
1a
04
0f
1f
ef
00
f9
dd
f4
f9
d9
d2
0c
01
db
f2
12
dc
1d
e3
fb
5b
09
e4
ee
1d
f8
ea
03
13
f7
12
03
03
08
0d
12
01
da
28
ee
18
03
e9
11
f5
ef
06
1a
05
13
27
e3
fb
2b
d3
1c
e7
06
21
2b
14
e7
06
fb
07
f8
11
13
df
db
fa
d6
0f
19
d3
f2
04
e5
0f
16
e3
0e
f6
0b
32
ea
10
23
06
e5
28
14
0d
f1
00
04
13
05
e5
10
0e
ea
11
fc
0e
0f
03
df
1e
ff
18
dc
0f
fc
36
d9
cf
f9
e7
06
0e
13
f7
0d
f0
fe
00
04
05
0a
05
ff
ed
f5
0b
f4
dc
c1
10
e1
10
f0
00
fa
01
f6
0c
12
12
16
0e
ed
f8
ff
10
13
1f
f2
12
f0
1e
11
0b
f0
04
f6
f0
0c
ed
f3
06
e9
03
f1
e5
0b
e2
f9
24
dd
b6
fe
1c
f1
18
f2
1f
d7
09
f8
16
e5
d2
27
2d
46
0d
fc
06
ea
08
e2
f5
fe
fb
0d
e9
11
1c
05
ec
23
20
eb
f7
1d
16
ff
0c
17
11
09
d9
f2
0b
f2
f9
f8
ee
04
ee
de
07
03
f6
de
21
e6
f7
02
19
0b
f9
0c
ee
f3
fe
0d
24
f9
eb
0a
01
16
2c
01
e2
fd
05
db
fa
e3
cb
ee
10
05
e7
21
0b
ec
ff
e1
13
1d
06
df
13
fa
15
00
0a
fd
ff
09
0c
e8
09
0b
39
0b
05
10
e7
c5
23
f0
e1
19
0d
fa
24
0b
0b
cf
1e
ed
2e
fe
de
d7
26
0b
e5
0a
f9
01
32
05
2e
0d
12
09
25
15
15
0d
fb
0f
0d
ec
08
18
fa
f2
02
05
12
12
00
0b
4f
13
d9
21
fc
d3
fe
1f
cb
e6
f8
06
f4
11
16
ce
ea
eb
fd
f1
e9
10
f1
e1
16
09
12
0b
0a
1d
15
e3
e7
fa
bf
ea
e6
ed
07
2c
08
05
3e
05
ed
1c
21
1b
f2
02
b4
06
e5
33
ff
0c
f4
bd
f4
ca
02
02
db
d6
f5
e8
18
02
f9
25
f5
df
f0
de
09
08
f8
03
e5
28
07
fa
29
db
f2
0c
00
11
e1
f2
12
f1
f1
18
01
f8
d9
d5
e9
04
e0
1f
f8
f2
2b
09
3c
ed
f6
f5
21
c8
18
e6
0e
0b
10
d1
03
eb
eb
f4
e6
f5
09
13
d9
fa
22
f1
f4
02
05
f6
14
01
0d
f9
11
f5
14
fc
ef
25
eb
fe
3c
f5
26
04
18
12
d7
f5
2f
00
f8
0b
2a
06
e8
0b
05
1e
0e
19
0e
f8
fe
00
15
ff
0c
fa
f9
1b
fb
00
15
d1
fb
f2
dd
e5
ed
fa
00
dc
00
15
eb
f0
22
1b
06
ef
f0
0a
e1
f3
29
04
fc
eb
0b
02
0b
f5
ef
f7
07
20
e7
ea
0a
07
f1
fb
fb
ca
ee
0d
1b
ea
f0
d5
f6
fa
f9
10
06
d4
02
e5
26
da
ed
f2
15
d0
12
0e
ef
01
fe
00
15
5a
0e
1b
17
d3
d7
f3
de
14
f3
fd
e9
f8
ed
0d
ed
1c
be
c9
2c
f9
a1
f3
04
e6
fe
df
dd
ff
c8
22
e8
38
ed
ea
c6
f3
f2
1e
36
15
ee
0b
0f
ec
06
e2
e0
f1
2f
ee
10
f7
f2
c3
34
dc
20
27
fc
df
e3
08
f5
e7
ef
e2
04
0f
f0
15
f2
e0
1d
03
2a
ff
2f
12
1b
fa
f8
06
10
f1
31
f3
e4
1e
08
e5
28
f8
eb
ff
0d
e0
11
f1
f0
d8
f5
09
1b
e3
d4
ca
06
09
ee
29
eb
1e
04
ee
1f
f7
29
13
30
e3
26
d7
fb
0d
f2
db
f8
24
05
dd
04
df
f2
ec
ed
34
dc
12
fa
d2
02
05
e3
f4
12
d1
10
0b
fa
d8
fb
1e
12
f2
f5
fd
e5
2f
10
22
f8
f0
2e
d1
09
fe
2e
e6
d7
02
06
f2
0f
1c
fc
e5
33
00
30
08
f9
34
14
f8
f0
ff
0c
02
fc
de
e7
09
e5
e0
f4
14
08
14
fc
05
41
ed
de
1b
2e
e2
f3
14
fa
ed
19
0e
1a
16
ec
e0
06
e3
03
1f
19
0d
0d
fa
21
1a
f6
09
ea
1d
26
e3
ea
f8
aa
fc
0c
e2
32
09
e3
f8
48
0d
fd
15
2e
f8
db
e5
e6
06
11
fa
eb
06
f6
d0
0e
c3
fa
fd
01
16
15
ee
10
ef
e3
0b
05
fb
2c
dc
00
e8
22
d9
0a
f5
e9
d5
e2
d8
01
12
f6
02
ea
0c
1d
fe
0a
f9
0b
e0
c4
e8
f6
0b
0d
19
f5
fc
20
fb
13
23
df
32
08
d9
0b
2e
cd
ec
1b
ee
f4
f0
f2
eb
07
f3
07
04
f4
ee
0e
f0
e8
01
09
fe
fd
11
e8
e5
db
0c
f1
17
0e
f6
f6
c6
eb
0b
f0
ec
e5
ce
f1
ef
e3
f6
09
04
48
e6
c6
dc
ed
f5
e6
dc
07
09
23
fb
14
01
f8
11
11
25
ff
fa
08
ed
03
00
f3
ff
ea
df
11
eb
0d
0f
de
ec
f3
f7
07
c6
ff
23
e2
00
ff
08
07
fc
e6
de
06
1b
00
e5
0d
e9
09
e1
02
f7
bd
ef
e0
d9
0e
30
0e
fb
b7
0e
09
f8
02
13
01
d7
26
f8
17
fd
d7
03
20
f7
f5
06
ff
e3
f8
c3
06
e2
ec
f1
13
10
f0
fa
f1
1c
fb
09
05
f8
ef
0c
f2
16
1a
f8
e5
fa
ef
05
f6
fe
f2
f6
12
f9
e3
09
11
f0
2c
0e
f1
ed
f7
ed
1d
13
e8
ca
09
f6
11
fc
e2
fb
1e
05
16
0d
f4
ee
10
d1
19
df
f4
ed
19
05
10
f9
ea
f2
f6
d5
f6
0a
cc
09
f3
09
f5
d8
dd
fe
ca
01
0d
fa
0b
dc
ec
ea
e4
fe
01
ca
09
d6
f4
01
12
23
d8
e4
ef
d5
da
03
09
3b
e1
10
14
0f
fc
16
12
cd
3c
e2
26
03
ee
12
2b
b7
dc
00
f5
f1
10
b9
f3
13
e5
c9
05
e9
f6
0d
db
f7
46
0e
cf
29
f6
f3
20
0f
ec
18
03
ec
db
11
e9
d8
dc
08
f0
ea
1c
02
17
e7
1a
15
d5
1d
e7
38
39
15
0a
1b
d3
e2
0f
cd
47
2d
06
00
17
d5
0b
ca
35
1e
cc
fd
fb
c3
f1
f5
09
d5
0f
ed
00
ec
0e
02
06
ef
25
10
e7
01
00
13
eb
1b
10
12
f8
f4
0b
e5
09
02
f8
e6
e3
01
f3
f8
e5
08
0a
fe
ef
d6
fe
00
1b
ed
d1
c7
fb
ef
0b
fa
d8
fb
1a
e2
1f
fb
00
e4
12
c8
19
f7
ff
f2
fd
0b
04
24
fc
f7
10
fc
f0
dd
01
ef
3c
f6
e9
e7
d3
04
ff
11
18
f8
f2
c6
f3
ea
14
19
fe
eb
0c
ff
0c
fa
f0
e5
f7
ea
26
f9
13
29
11
e0
00
f9
0c
01
e1
ec
ee
22
fa
e9
13
e0
ec
d9
21
04
df
e8
da
de
e8
ff
ef
21
f3
d3
f4
f3
fa
ee
18
19
c6
e5
10
fd
02
2c
e9
ee
19
eb
18
05
fd
e6
ef
28
10
02
18
f8
d4
1c
f0
32
11
17
09
0b
e1
1f
38
f9
0c
00
03
1b
e7
1d
1b
f7
12
ea
18
11
1c
31
21
19
24
03
1a
05
07
fb
0a
08
13
bf
0a
e8
0b
0b
10
e6
13
02
fa
e8
f0
fb
ec
07
08
e7
e6
0e
eb
d6
12
2f
f2
f8
32
f2
f0
18
16
29
e3
fd
3e
d1
01
06
21
ea
bc
e1
13
12
e4
10
0b
d1
07
f7
1e
f2
d8
15
f5
22
e3
06
08
06
0d
e1
03
0a
f8
f8
04
d8
1e
14
17
0c
37
12
f1
ea
ee
fd
02
f5
04
c8
f9
05
ba
e8
02
d5
fd
09
ef
d9
d3
14
ef
f6
30
fa
f1
2d
fc
19
19
34
f6
f8
eb
e8
d6
e5
22
17
18
06
4f
f0
d7
1b
0f
f1
17
0d
e5
0d
11
33
df
0e
fd
ee
0a
13
0a
f3
05
04
ed
f8
0a
10
02
f5
04
12
0b
ea
ec
f1
eb
e7
11
e6
f9
10
ea
0f
1b
fb
f9
0a
0d
f7
f7
f3
e9
14
ff
03
1a
ed
f0
0d
17
f2
ff
f0
1a
ec
fd
f8
fa
03
e5
f8
19
1a
e8
12
09
f5
ea
ea
09
0d
02
04
0d
06
19
1b
06
f6
12
11
f1
19
0e
f3
01
f5
fd
0c
f4
11
eb
e7
eb
e4
dd
da
f5
f0
e5
0d
0f
14
1a
ec
06
11
13
25
d5
e5
07
17
0b
f6
e9
f4
fb
e6
21
fd
e3
1f
fe
ed
e7
f2
db
06
03
f0
ec
20
07
1e
f4
e8
f3
db
f0
15
35
12
ad
fb
e7
d3
0c
1f
f5
27
14
e6
c2
f3
eb
c7
f0
09
db
dd
20
fb
ea
da
fd
fa
c2
06
e0
46
3e
fc
0d
3c
cb
e6
30
ff
ec
2f
26
ed
1c
f8
fe
e0
43
f6
b7
e5
e6
f6
ef
f5
f1
2e
14
c3
f4
d6
f1
f1
e9
13
0c
e0
e3
dc
0d
e4
fa
fa
16
1b
10
17
05
fd
f7
f5
fb
be
08
07
db
fc
04
21
2d
f8
fb
f8
ec
02
f0
ed
de
d5
19
e8
f0
fd
d4
19
30
06
22
18
ee
17
07
a7
05
1a
0d
ea
13
11
00
25
08
f5
e8
1a
fe
04
04
12
0b
18
06
f3
1c
ea
12
29
18
e7
2b
1f
0e
28
fe
0e
fb
d2
25
13
12
2d
08
ed
17
e7
fa
0f
e1
fc
d6
ee
2a
2b
17
29
dd
03
09
1c
ff
f2
2a
1a
1d
f3
0c
0b
19
e0
0d
df
0a
22
e5
14
e8
f8
f7
00
1a
ef
e7
29
02
f4
06
14
1e
08
19
03
01
1c
ff
03
06
f8
fa
f8
e2
d4
01
2a
02
0e
f7
f0
01
09
1c
02
e6
06
ef
ce
fe
16
e8
03
fc
1d
14
eb
15
e3
fb
03
1e
35
f6
0a
24
ef
fb
e1
0d
e2
05
12
f7
0f
e5
ef
01
fe
07
f9
f3
02
06
ed
ea
ed
05
06
fb
10
ec
fb
e0
f6
ee
02
dd
f0
09
22
13
f2
0d
dd
e5
11
f7
f6
f5
0c
db
ee
f2
07
f9
1c
08
f2
0b
e8
fb
f9
f4
07
e7
0e
06
f3
f8
05
02
fb
ec
f2
21
f9
17
ec
f6
bd
17
0c
01
27
05
09
fa
f6
f9
13
03
0f
05
12
1e
04
f4
f9
fc
2f
fa
cd
24
ea
f5
13
14
0e
d4
fc
00
ea
07
13
e8
0f
cc
ff
05
17
af
fe
e9
ed
37
f5
e9
0f
fe
07
fe
e5
05
f9
03
e6
15
ea
f1
20
f7
ef
de
ec
db
24
ed
36
3b
f4
10
f6
2a
18
21
31
ea
d5
1f
0e
fe
1d
e9
f7
fe
df
06
19
f5
17
14
0f
f1
0e
e3
03
0a
da
f1
e1
09
10
31
0d
cb
21
10
02
f9
05
28
06
0b
dd
de
0a
21
eb
22
04
0a
0f
1a
fa
fe
df
00
ec
e8
fd
d8
e6
1b
ef
19
1e
fe
f1
20
00
01
01
17
18
0c
f2
0b
24
f7
cd
26
1e
2d
07
f8
db
03
e2
e6
f2
f7
1e
f2
01
10
18
1a
16
fa
0b
11
04
e0
f1
06
11
27
15
23
e5
19
e3
0b
ea
f1
fc
06
d4
0b
dc
f8
d5
07
32
03
11
fc
f5
04
fa
25
ee
e6
09
0b
fc
d4
ff
04
0b
01
f4
e1
d3
0c
1d
e4
05
0b
cb
14
e4
fc
03
fe
0a
ee
bb
fa
eb
05
21
16
0a
fa
e0
10
09
1b
03
f5
19
f8
f0
18
09
1c
dd
fe
f2
ee
ef
f8
17
04
0c
ec
1d
19
f8
13
00
1c
fb
ff
11
12
f5
0c
17
f7
fb
1a
fb
e6
f5
f3
f8
e3
e8
0e
f5
f7
ea
f2
f9
19
eb
ef
07
eb
31
0b
0b
0f
f2
1b
03
02
ce
1b
17
f0
dc
f2
18
06
fd
f6
f2
0c
08
11
da
f7
fe
e5
fe
0d
f3
05
21
ee
0f
20
11
fe
10
ff
fd
1b
22
0e
f8
eb
01
42
f3
e3
1b
fb
e5
01
fc
09
f2
e8
d9
1f
f6
0b
cf
f8
da
e2
1c
cb
00
ed
fd
df
fe
ea
1c
18
0b
1a
e5
f9
04
07
f4
ee
dc
0c
08
05
e8
21
16
ea
13
08
e1
e4
28
e1
00
18
0d
e7
eb
f6
f8
f2
27
14
05
2b
fe
10
f5
fe
c7
05
fe
0e
1b
e4
1a
01
b9
24
e8
cb
08
18
f1
bd
ee
e6
1b
f9
15
1d
fa
1a
07
1a
16
2f
ef
08
fa
11
e1
23
ef
cf
e7
f0
1b
f2
07
0f
ff
03
c6
1e
22
18
bb
cb
04
fc
d6
eb
07
f1
ea
e2
05
0a
f5
fc
04
0f
06
f3
f4
1b
df
cc
0c
06
2f
c4
0f
e9
26
0f
0c
de
3a
15
07
f2
39
0f
0b
24
0e
13
ee
ca
0d
e1
0c
05
d4
fb
16
d5
13
e0
e4
ff
21
f8
e7
ef
16
03
f2
e3
32
08
f9
14
fb
14
1b
00
fa
01
01
39
0f
16
18
13
2a
11
e1
09
18
23
1d
eb
0f
d2
f9
f2
11
ef
16
dd
06
06
32
1d
30
0a
22
fd
03
06
e7
fe
09
22
0a
f6
18
23
f4
02
ff
0c
e7
04
01
14
e8
0c
15
0b
10
e8
c9
ef
1b
1e
e5
12
0d
00
0b
e8
f3
0a
03
03
f9
ee
fb
ea
f9
22
12
0e
05
f6
0c
f6
e4
04
f8
1a
01
d3
2c
ff
0d
ec
11
01
07
ff
ec
04
f0
e5
d7
e0
fc
e7
f0
08
ed
d8
0c
f8
08
fa
22
19
0a
ee
ad
e3
f3
d0
09
e0
18
ee
fd
0b
dc
fb
20
d7
17
43
e1
de
18
07
e1
12
a9
fc
20
d0
22
fb
19
23
01
df
e1
e3
10
f6
f7
13
d4
c1
dd
de
db
00
2a
52
15
f3
1b
e6
cd
21
be
0d
fe
fc
09
d4
0e
1b
e6
09
e7
e3
f0
09
1d
ed
02
fa
21
21
18
0d
df
fe
f8
1c
23
f7
fd
f4
e8
fe
1c
00
cc
0d
16
03
18
ef
b9
fc
09
f5
0d
f6
11
d3
0d
16
37
0a
0c
06
1b
0a
f1
cc
f5
f4
19
06
12
1a
02
0c
f3
01
f6
f6
fc
0c
03
e8
ed
ed
e3
08
16
0b
1c
de
15
09
04
e7
20
ff
24
24
fc
0d
fb
25
01
f3
13
12
bf
20
12
f2
01
eb
3b
f6
f2
16
be
0f
e6
cb
de
ce
b0
ea
24
ca
f7
d5
fd
34
0d
d8
0d
f6
30
ec
01
ef
f4
fd
ee
16
ee
f6
12
18
ec
15
0f
1c
2b
0d
ff
0b
18
f2
ec
12
fc
f0
f1
1a
c7
0b
1f
e7
ea
f5
c6
f1
d5
f0
1d
15
11
1a
d2
13
00
f7
ff
01
0e
d2
3f
08
30
14
01
16
1d
e9
f4
0e
03
1b
18
f4
f1
07
15
10
f4
1b
ee
10
fd
0e
ff
0e
ec
03
de
ed
05
ec
22
ea
fc
f0
e2
e5
1e
f1
28
0d
fa
eb
ee
06
d6
0f
1e
e9
de
06
d9
de
15
f9
27
e0
10
20
f3
fc
0e
e6
24
e2
d2
10
23
e3
e6
de
0f
34
fb
e1
11
d7
0c
07
b4
cc
1e
d5
ee
21
e3
09
f0
0a
ec
06
ea
0e
f0
11
0c
06
13
ea
f4
0a
ec
13
19
19
0b
f3
e0
1b
f2
14
d6
d9
cf
f9
f7
f0
e6
e2
d4
f7
f3
02
f0
18
fb
d3
2a
ff
22
fa
ec
e7
15
fc
03
2e
15
f9
11
00
fc
06
d4
ea
fd
f2
e5
07
fd
12
27
eb
f2
eb
07
f7
09
f8
f8
c9
0b
fe
d2
19
fc
e4
07
e6
0d
0b
fa
f2
f4
08
fe
f3
e0
15
e4
fc
06
e4
27
a3
15
05
24
d4
12
e1
1e
0c
16
ed
10
25
08
28
00
27
04
c7
fa
e2
1c
0e
b3
0f
00
dd
fe
f2
db
e2
e6
11
f8
0f
01
f8
1c
eb
13
ff
ea
ed
01
13
1c
f9
0b
fe
f0
d0
f4
09
ef
e5
02
f4
00
df
e6
07
f5
01
f0
04
fd
e6
12
14
f8
ea
03
f5
da
ec
12
06
f8
e3
d4
06
f3
08
e1
fd
11
15
e4
fb
f3
e9
16
14
f0
1d
21
f9
e4
02
ea
f9
ff
e0
d7
ad
f8
dc
d3
f9
01
d9
ef
f1
0a
1f
0c
f7
eb
10
f8
14
ea
18
0c
f9
02
0f
33
ef
e7
00
2e
e6
10
a7
5a
f4
05
ab
22
02
f8
2d
f6
34
0d
b7
f3
e5
f7
09
dd
02
e4
e4
f4
10
e7
06
20
07
f2
fc
0b
f6
0b
d8
f1
32
0b
cd
ff
dc
e4
0b
f6
cc
11
11
00
de
00
f1
f4
0e
1d
ee
1d
10
01
f4
23
fe
15
e5
2e
f4
40
05
02
3d
fc
1e
f7
ca
fd
f3
42
ea
ff
08
03
16
dc
3d
ee
f1
08
11
dd
09
24
f4
0f
17
07
e7
e3
e8
12
00
d1
15
f6
f0
fe
19
ea
08
1a
fe
08
06
e3
f9
0b
18
ff
0d
ed
11
04
f6
e4
f6
02
d0
f0
19
12
14
12
b5
2a
01
1e
e1
12
fc
0e
fe
ed
0b
11
f6
d5
01
fb
fa
e4
17
04
bf
04
10
d8
13
0a
f4
ee
0c
d4
1d
e6
e6
ed
ff
fe
0d
e0
f6
fe
0a
0c
f2
af
e2
ef
10
f9
fd
f8
ee
ea
f4
10
fa
ea
03
12
f3
e7
e2
f2
f4
0a
9c
30
03
0d
fe
2b
9f
f9
b2
0b
14
f2
f9
1c
f1
f8
07
fa
d6
09
cf
d6
e9
f7
17
23
ef
c2
02
0a
1d
0e
19
34
e4
00
0a
ea
13
0d
ed
f5
06
09
0a
0c
2c
15
eb
36
f6
e1
1e
08
ef
2d
ea
33
1c
e6
ff
e5
e9
18
08
fc
ef
e5
06
22
eb
03
d8
03
21
12
ec
24
fe
01
f2
f6
f6
f2
27
f2
08
fa
f3
05
f0
09
0b
d2
ef
fb
df
d9
fe
02
02
ed
09
1e
f9
f2
0a
e9
20
f2
1a
e9
0e
21
fd
02
06
f4
db
08
0a
3e
dc
fe
fe
df
f1
f5
d9
3c
fa
13
f1
33
d3
e5
09
f1
27
ed
cf
0b
d3
15
fd
f3
e3
f8
16
10
f0
dd
07
1f
f6
e0
15
ff
e6
f7
fa
21
fe
17
dd
c7
f0
f6
f5
18
10
cc
16
fa
fa
f7
f8
be
fc
e8
dd
ff
e6
27
ff
e4
14
ec
bb
f9
ee
16
e5
24
09
2e
23
c3
ec
01
f2
29
27
e5
36
28
e9
df
00
db
0d
f9
ea
f8
f4
11
e5
13
05
fc
03
05
13
04
15
16
e6
fd
0d
1a
10
17
fe
f2
05
ee
0b
f8
17
ea
f8
fd
f3
ed
f9
09
11
18
f3
f9
f8
fa
f4
17
0e
f3
f0
f5
18
f9
ff
13
eb
ff
f7
11
fb
11
05
ed
fc
fd
17
0e
f2
eb
04
10
15
08
fb
f1
10
06
ea
eb
0f
ed
ef
08
00
f4
f0
f3
e0
08
09
1b
09
14
06
f1
0e
f1
f7
e1
02
fd
f8
d5
0c
e6
f2
20
18
fc
fa
f4
fe
ed
09
1c
0e
0d
0d
14
fa
1c
f9
d2
ef
fb
fb
fc
da
ee
fe
f9
f3
04
fa
06
e7
0e
16
3b
eb
d6
fc
e4
f1
ff
0c
f7
fd
1f
f2
21
e0
f5
f4
e2
b6
6d
3f
06
df
07
f7
a6
f3
ff
eb
10
ff
38
ef
e3
dc
12
f5
19
0a
5f
d0
3e
51
40
d6
11
27
f1
f7
20
f6
eb
cd
25
01
c8
48
e2
e1
fa
d8
01
e9
2c
3d
f0
10
16
0d
e7
fa
f4
04
1b
12
12
d8
eb
07
ed
03
13
f8
1b
fb
fe
e7
03
fc
0f
f3
fd
e8
ef
f3
eb
f6
01
1c
eb
f0
e7
17
e2
c3
29
0d
26
e6
d4
0f
00
fb
f1
dc
08
03
02
d5
f7
aa
03
ea
10
02
0c
10
f2
07
ed
15
0f
ed
f8
08
29
f9
12
24
01
08
23
09
f4
0b
fb
f9
ee
0a
0d
0d
24
ff
08
e4
1b
20
fe
1e
ef
fd
e5
1d
13
0a
fe
f3
d0
d3
e4
26
fd
1d
0b
fa
20
0b
1f
dd
14
05
24
10
14
cc
28
13
f6
08
fa
02
0d
20
f4
06
f2
0c
1b
14
ef
e5
38
21
ee
fb
02
24
ff
18
f6
02
e5
03
f3
28
f6
fc
24
e9
e1
25
27
24
ef
f6
02
e3
ee
f7
fd
0d
ed
d8
fa
02
00
26
09
e8
0e
fc
fb
e8
e6
ee
0a
ff
21
e0
0b
11
fb
17
e6
18
fe
33
f6
fd
0d
09
0e
f9
0f
14
07
18
09
f8
1f
f7
04
10
f3
03
ef
f3
0b
19
fa
ea
f5
0e
07
ee
17
0f
f9
01
04
fc
ee
01
22
17
f1
f1
29
12
f6
ef
f7
02
f0
e6
e6
05
f8
ea
fc
01
ed
ea
09
1e
0e
0d
f1
0c
0e
03
02
15
f2
f0
b4
22
15
20
e2
ed
e7
0b
da
04
1b
11
01
f0
24
0f
ee
21
e9
11
10
0a
e5
2c
13
e7
0a
f6
38
fa
13
20
09
ef
df
d4
18
e2
ad
d8
30
eb
f2
16
28
08
f3
f3
f9
03
fe
03
f0
e6
21
ed
26
fd
c8
1d
f8
09
fe
00
e7
00
01
ff
f2
1c
fb
34
f4
32
03
26
fd
f6
0e
02
f5
15
05
15
24
fe
f5
04
0b
12
17
12
01
f1
ee
06
e1
fd
dd
cc
f7
ec
d7
27
01
d8
16
ff
e8
d6
18
13
ff
11
10
c8
0a
00
03
2b
02
31
f3
f4
fe
ea
f6
03
19
1a
17
02
34
28
02
1f
1d
0f
f7
15
0a
33
db
09
02
f9
f8
14
10
01
14
fc
21
15
f9
ef
ec
0d
e8
e7
2d
18
f8
c9
fe
34
13
15
1d
dc
ee
e8
33
d1
f2
0e
22
f8
f2
0c
fe
ec
0c
f6
0c
f5
33
0c
dd
ff
16
e1
f9
ef
2a
01
ca
02
1e
1b
d7
14
fa
17
f3
0b
1e
09
03
1d
e2
11
00
ec
1d
fc
18
dd
cf
0c
e2
09
0b
02
1f
19
dc
d8
03
15
f7
e8
ea
ee
13
13
9b
f1
0e
f2
cd
e4
2a
fa
fe
fb
fa
f9
19
f9
17
26
d1
fa
0b
03
e7
18
ef
0b
11
dc
19
f8
ef
0c
ee
ff
fd
ed
07
fb
e6
1a
12
12
fd
e1
f2
1d
fe
09
ff
17
0e
fe
f3
1c
f2
ff
0b
fd
fc
f6
0b
0c
1a
17
ed
11
cd
e0
16
dd
09
0a
f7
0c
12
fd
0a
f2
15
e7
dd
01
02
10
f4
ec
07
08
ee
0b
f2
04
23
1e
0f
f4
d3
fd
1c
0c
f7
08
09
17
11
ee
33
01
fb
27
19
ea
08
f0
d5
f7
f4
fa
f8
05
ce
d4
41
f6
e9
17
e1
07
14
25
e2
07
e5
19
fb
1d
1c
09
f4
17
01
f3
ec
eb
d9
f9
ec
08
07
e0
ff
03
1b
f5
ec
00
2d
f2
06
2b
f6
05
ef
10
27
d4
16
06
0d
17
f0
dc
15
0f
1c
05
fe
fd
9d
fc
f2
15
15
1b
e9
d3
f6
08
0b
fa
cc
10
f4
ff
c3
fe
fb
fb
ea
e6
17
d9
0f
10
f1
0b
ed
ff
e5
23
2c
15
0a
f8
d6
24
2d
02
ee
bb
fc
ed
e7
26
07
11
ec
18
18
0c
fd
12
e7
e3
f0
08
fb
06
f5
ee
10
fc
20
d2
fb
0b
22
0b
ee
dc
0a
06
f4
be
14
cc
3b
12
1b
e4
ee
c9
14
ed
e3
20
fc
25
16
f8
07
f0
df
0f
f9
14
eb
09
0a
27
25
ec
ef
f5
16
25
0a
23
f5
f9
1b
03
fa
0f
0f
12
29
ea
38
0e
0a
05
03
19
06
f9
ff
f8
ee
11
0d
1c
de
de
e6
05
15
0a
fa
ea
11
12
fa
f6
fc
0b
2c
2f
21
07
07
20
05
2e
10
08
fd
11
18
ef
15
df
17
fa
03
0b
0c
cc
17
07
eb
13
0f
f8
fc
f3
e3
08
f3
13
de
ee
04
e8
09
17
28
f0
f6
f7
33
fe
17
0b
fb
f7
05
b4
f2
3a
0a
12
1b
05
0b
05
0d
08
fb
f1
e1
00
0e
e7
04
f9
0b
e6
f8
fc
f1
19
0e
f4
13
fa
a9
00
17
01
f7
d1
f7
f5
d6
fc
e9
28
22
dd
26
04
ec
e8
37
f7
dd
f2
c6
eb
2e
d4
2e
0e
0e
09
13
be
f6
fb
d9
cc
16
c6
d5
e8
e3
29
e4
ff
3e
13
0b
f8
1e
05
e2
c5
0d
02
14
fe
f1
fa
03
2c
1a
f3
02
f4
22
1f
0c
f0
19
08
17
21
f7
f5
0f
09
2a
1f
dc
08
f7
00
f0
fa
02
f4
1b
06
0c
0f
ff
eb
c4
02
02
10
2a
fe
d4
c6
1c
21
ec
0f
24
d8
0f
02
f6
f3
10
fd
0f
09
27
e3
dc
0a
e7
07
06
f4
11
ff
1b
ee
04
06
f1
f4
0b
fe
e2
e9
07
fb
df
06
10
09
fc
18
19
e7
07
0b
f0
ea
23
f2
e3
05
0c
fe
0c
18
fe
e0
10
f4
12
e9
ee
ed
11
ea
cf
e2
16
ca
ef
ec
ef
10
f5
c3
0c
fa
f0
ea
f0
00
08
01
1d
09
e0
23
c2
fb
1b
0d
e5
00
20
06
10
08
10
f7
f8
0d
f8
16
f3
2a
da
f9
14
00
f5
0b
fd
d9
1c
11
2e
eb
f9
fb
c9
e3
09
1b
2a
f9
d5
d0
01
0d
12
2b
f9
d3
05
f8
c9
f7
f0
ef
f4
e2
33
fa
1a
17
f0
30
11
2a
0b
02
0d
e8
ec
fb
ee
0a
0a
f3
f3
fa
ed
e2
da
f1
e7
f2
1a
03
16
04
0b
21
d4
f5
fb
01
e7
1e
e9
de
f6
f7
1b
00
e9
17
03
0a
f8
f8
fa
01
d4
bd
14
0e
f3
d9
07
06
f9
d2
04
f3
0e
dc
c8
0a
02
f1
f1
ef
d2
fb
e0
f6
12
e9
f6
1d
04
10
0d
f1
f7
02
ed
f6
e2
f3
02
f1
17
0f
09
e1
e0
05
db
e1
18
e5
2c
eb
ed
16
b6
fc
ec
ec
25
f9
cf
c3
49
38
f1
1e
f3
14
1d
e8
ed
f2
0b
12
f9
03
fa
e7
15
e7
0c
ed
e3
e8
e7
12
35
e7
0d
e3
f1
0b
14
ed
f4
dd
14
fc
e3
18
07
e5
0f
1a
f9
06
db
fa
f8
e5
e8
f5
08
fd
27
de
0d
02
1e
d1
13
e6
13
0f
02
c6
d3
08
0c
f0
00
ca
2d
f6
14
02
14
db
f2
11
cb
f6
15
0b
e5
15
14
18
ec
f9
de
17
07
ec
15
f8
19
19
d7
ef
12
04
ec
fa
09
07
f9
00
1c
12
fb
0f
e5
e4
f7
e5
fd
ee
10
07
02
00
02
11
0a
18
ff
02
1a
d5
f2
04
f5
e4
14
0e
17
ea
f8
d9
18
f0
e6
f9
0b
10
cc
f2
f0
e6
fe
ed
eb
f5
28
e8
e6
f5
d7
06
f3
f8
ea
b8
0b
e4
d8
f6
0e
ed
db
09
18
0a
de
f7
1b
ea
c5
13
e3
d6
07
d8
fa
0a
27
ea
e9
c9
12
f6
f3
d8
e4
da
ed
f7
e2
f1
fd
08
28
ec
ed
cd
f6
f3
eb
15
2b
06
09
34
18
ec
0d
0a
02
e6
24
0b
e8
29
e6
00
d4
f3
02
10
f0
19
e9
1d
f0
e5
14
e9
0c
0d
1a
12
e5
0c
27
f4
1a
fa
03
ef
09
f0
ee
11
14
f3
e0
e1
15
18
f4
0f
f9
ca
f5
1b
1d
d9
ff
d9
13
f6
00
da
f3
f3
f4
1e
04
f7
3f
f7
27
04
14
f3
f7
05
1d
f2
fe
02
06
13
fc
07
f6
fe
00
17
e9
05
ea
03
eb
03
07
05
15
03
12
0e
f4
17
ed
e1
0f
0f
27
06
fd
b5
0a
42
02
f5
02
eb
16
ff
f7
f0
ee
da
0c
07
f6
14
df
fe
f4
14
ea
f2
01
f3
f1
fa
e0
18
f6
03
e6
f6
08
05
2c
e3
16
f3
f0
0e
ed
b9
db
f8
f0
24
ef
0d
1c
d8
23
34
64
f4
04
f8
1e
d5
ea
1c
00
de
d6
aa
1b
05
bc
f4
08
da
ef
39
c1
eb
e9
12
17
ff
10
b0
19
14
e9
1c
01
f1
00
ec
f6
e4
f5
0c
b9
0a
f1
f6
08
da
f3
f9
ca
16
1b
16
1b
31
22
08
1f
17
16
fc
31
01
f7
1f
f2
fa
12
17
20
08
0c
fc
1b
e0
e6
e3
f7
ed
c9
ee
00
c4
06
05
0a
13
14
f2
3e
1e
1d
d0
df
ff
02
0d
24
21
f6
0e
ff
ef
00
ee
ee
2f
05
02
d3
c7
ee
0e
ff
0f
0b
f5
06
dd
e6
19
01
26
11
02
2d
fe
f1
3a
ed
f0
ff
03
24
cc
ea
1b
f1
17
e2
d4
23
f3
f0
df
24
d9
2c
1c
10
fa
f1
d6
fb
f7
f9
e7
fe
04
25
1d
00
07
e4
11
e0
f8
16
fe
e4
f3
fd
27
0d
fd
20
d2
ca
fb
ec
df
f7
1c
14
dc
ef
e9
02
f2
08
e0
18
21
fd
e2
e0
f8
bb
26
eb
df
2a
fb
c2
b9
07
fd
f1
fe
07
07
d5
0d
a9
f5
0e
ec
21
f6
f6
be
14
e1
d8
e6
1d
17
d8
14
e6
f5
e5
e7
fd
12
07
17
18
10
f7
08
f8
f8
1b
19
0a
11
0c
06
f2
03
f3
f5
f9
0c
0d
0c
eb
fa
0b
f5
f3
12
04
f2
14
f3
e9
01
e7
0c
fa
04
f5
f4
17
08
10
0b
f8
00
17
1a
05
17
eb
00
0c
e8
f0
fd
0f
18
00
e2
1c
15
f4
15
f2
02
d8
d1
ee
14
fb
e0
08
ed
19
da
12
ec
f2
f1
05
e9
e4
f0
1b
f2
e0
0c
e5
fa
1a
db
15
17
03
08
12
0a
1e
f0
db
c9
08
13
12
f1
fb
de
f4
02
12
04
e3
0b
ce
f5
e6
df
05
e5
06
f8
26
ea
fe
18
f8
ff
1a
0a
12
ea
07
da
0c
cc
e9
02
19
de
db
0d
e1
d8
ec
fe
cd
f7
26
ce
11
2a
1a
0c
2e
ba
ed
dd
42
02
3c
c9
0c
3b
28
e4
ef
e8
fb
db
44
c8
ef
d0
39
f1
e5
1c
21
e1
e6
35
2e
f3
68
df
04
f4
15
da
32
f0
12
db
34
14
26
ef
f9
1e
e2
f1
0a
10
23
13
fd
25
f3
04
f2
13
16
f5
bd
18
07
18
12
1f
e8
e9
d7
19
f1
1b
e6
2a
01
fb
11
06
08
27
e8
1c
ef
10
e4
ea
38
e8
0d
37
fb
08
0b
21
fc
d4
27
fc
f0
ef
3c
ee
02
e8
c7
23
11
02
f5
03
d9
03
0c
e3
16
0e
fe
f7
f4
08
fd
e2
08
0f
f2
38
ee
12
0b
f8
17
23
17
e6
2c
10
36
1e
20
d3
d5
fc
01
1d
16
18
04
fd
0d
05
0b
1c
14
fa
e6
f9
00
05
ee
e6
eb
f0
e9
ef
fb
05
fd
02
e2
02
f3
01
e7
12
ef
f7
0f
f5
0f
14
16
14
f2
0e
04
fa
00
09
32
3e
fe
17
19
01
fd
21
07
0d
0b
1c
0a
de
1e
0f
ea
21
0e
fb
f7
2c
e4
29
10
ea
05
06
20
1b
12
04
df
13
de
e4
e8
07
06
f4
f4
f6
e9
f0
f3
2d
04
05
1e
06
0c
1e
ec
02
ed
02
f7
13
1f
f7
ff
e9
08
f4
0b
24
e5
0d
0a
1f
06
07
f6
ec
f8
14
f2
e0
ed
11
00
1e
f0
14
09
0c
ec
fa
14
14
00
05
21
f3
02
e6
fc
fa
e7
f3
e0
f0
ea
e1
04
e7
03
e5
23
0c
00
f7
d0
ea
fd
06
08
2b
2c
26
f1
1e
e6
10
fb
06
1d
e9
e9
20
0f
fa
ef
ee
0f
0c
fa
fb
d8
10
b6
fe
05
bd
27
28
f8
e2
d5
28
0c
04
08
fd
39
ea
ed
1f
06
dd
12
30
22
d8
2a
e5
f4
00
0c
d4
ef
cf
cd
36
08
0b
1b
f7
e6
f8
f0
cc
18
ed
f8
10
fb
ff
f4
06
0b
12
14
3c
09
e4
fe
26
e3
30
fe
f5
1b
2d
19
e4
ea
c8
d6
0f
e8
24
21
18
17
19
ec
fd
0a
20
2f
06
fd
e0
e1
03
10
d5
1f
f3
0b
f7
03
eb
f3
e9
fd
3a
14
14
15
09
13
00
ff
1d
ec
0c
13
f0
ee
15
26
1a
08
11
0c
1f
1c
fd
08
13
f8
14
ec
f4
21
0e
fa
c8
17
0d
f4
e7
12
0d
1c
20
16
1a
04
1f
03
06
49
16
04
18
da
0e
d3
e5
ef
03
12
fb
f8
e3
fc
dd
e7
01
28
1d
02
f6
d9
06
1f
1c
12
fe
0c
22
1f
ed
fb
f6
1c
f0
f5
25
eb
fe
d3
0f
10
0d
15
15
15
55
b2
0a
f8
03
d7
32
f9
1a
de
0b
f1
04
f2
fc
0e
18
45
1d
e2
f1
03
ef
11
fe
01
e7
17
05
fa
e5
f9
e4
ee
0d
0e
0d
f7
ed
eb
0e
f2
e1
16
07
0d
15
0e
19
ff
e2
13
1a
d5
06
e3
f0
d2
27
03
0d
e8
08
fb
21
da
f2
d8
e8
0b
25
13
1a
14
eb
e3
19
05
02
ea
fe
04
f0
f8
d6
0e
df
0c
fb
f2
12
1b
e5
4d
eb
0a
c7
17
41
14
ef
ea
da
de
20
16
0d
22
f4
03
05
fe
f0
2a
e0
11
3e
f7
1e
f4
fa
de
13
fb
1c
0c
09
fb
35
ab
f5
d3
f4
1d
2a
e8
f6
0c
05
ed
f4
df
1c
f1
ea
1a
0a
ee
11
f3
04
12
ec
0b
09
24
10
1e
e1
ec
f7
ce
38
16
09
06
16
e7
18
14
ce
22
07
0f
f4
27
f1
eb
de
ff
08
e9
12
f2
ff
fb
2c
12
09
1b
df
29
3d
d5
0e
10
ed
b2
30
06
0a
18
10
02
0c
18
ef
02
27
2e
14
d4
cd
e4
e3
08
f0
11
06
cb
f1
00
d4
18
d6
eb
16
16
11
de
f5
f8
e1
dd
fb
f0
0e
ef
d9
f1
1a
e8
d2
e4
eb
02
08
1a
fb
f9
e7
11
fa
d2
0d
02
1b
d2
1b
a8
1d
e1
12
07
eb
b3
1d
08
53
c1
e5
de
0e
ee
00
fd
f0
d1
13
df
d7
0a
04
ed
dc
09
ee
fd
0d
f2
ff
f4
1c
0e
14
09
e4
e8
f2
ff
18
e8
ef
fc
e1
29
f6
fb
0b
33
32
04
ee
19
eb
01
11
e3
09
1e
05
1b
f3
01
fc
f5
fa
06
ec
d9
22
17
07
fd
15
f8
ff
1d
17
02
fa
06
f7
e3
e6
eb
17
f7
f3
eb
fa
f0
02
ed
32
0a
ea
17
0a
f6
ff
f5
0b
dd
d8
12
e7
fd
f4
e0
f7
12
10
13
25
03
ec
b9
12
ec
04
f6
fb
05
0a
0a
d9
e6
0f
f7
13
10
0b
ea
18
ea
20
ee
e8
28
f2
08
ff
0b
f9
04
f4
0a
f9
33
fe
34
06
39
0e
38
1a
20
eb
24
fe
e2
f6
2c
f7
04
32
4b
3c
de
29
ff
e7
f6
e5
4f
ec
ec
13
5f
e3
34
e0
f9
f3
ff
10
f5
55
f1
2a
e9
dc
48
41
3a
1b
e0
35
fd
0e
2f
e9
c7
14
da
49
f6
dc
16
20
39
0f
e8
fb
11
ed
0e
0a
f9
ec
f5
1a
10
2c
1e
26
10
f5
14
28
08
13
18
0f
f4
ec
2a
f1
e5
3f
1d
19
e9
0a
f2
04
ed
16
e0
f5
fe
e4
dd
d3
0c
0e
f4
2d
f7
0e
12
23
0d
0f
ff
02
00
20
25
06
e9
2e
da
ff
f1
0c
0a
e9
eb
f6
19
eb
10
e4
f9
fa
20
ed
c4
f2
09
0d
e6
1f
0f
22
fc
3f
e6
16
12
08
21
17
13
06
25
eb
f6
f7
ef
27
da
1d
f5
40
b4
f4
ef
d9
1d
18
0a
13
dd
18
0d
f4
ed
e1
48
f8
11
1f
11
fd
13
42
09
b8
0f
18
0c
fa
ef
c9
f4
cd
fa
27
1b
19
f7
08
ee
f1
08
e4
de
1b
01
e9
fa
fc
09
15
0b
25
de
10
08
04
f1
30
04
09
0f
f1
16
1f
bd
ef
ec
f4
d1
25
ff
0e
28
fc
06
0f
eb
f2
24
05
20
06
07
20
ec
dd
f2
e4
e3
fb
fe
f0
1a
02
ff
f6
1d
06
fe
e3
f1
05
f4
09
ec
1f
2d
12
01
37
fc
f0
f0
f6
06
c6
09
2f
f9
f7
d6
1c
06
05
0b
11
03
4a
cb
01
e6
ce
0c
3a
eb
f8
ee
04
f4
f4
dd
f4
3e
fa
06
e4
e2
f7
f1
24
19
f4
fe
f1
01
ea
25
ca
0a
df
eb
15
19
e4
1c
11
f7
1f
00
e4
01
12
0a
e8
ef
fb
fa
f2
f9
14
17
14
01
0e
f9
fc
e8
fb
e8
17
37
4a
be
f2
f6
e5
07
2e
05
16
0c
f4
07
1f
f5
ff
00
15
35
e3
fa
f4
f0
eb
04
01
e2
f5
fe
05
0f
e9
08
ac
c9
1c
fb
fb
d1
1e
dc
fa
0b
11
ff
f7
e4
0a
e6
09
05
02
0a
db
0a
13
f6
f5
ec
d2
05
e6
c4
de
f8
f3
03
f3
1f
11
05
1b
d7
f8
b1
2d
fd
17
d9
d2
e9
2a
fc
17
00
01
db
1c
f4
dd
e1
11
1a
ed
f7
0d
e4
e9
f1
1a
f2
0b
25
f7
0d
21
00
e4
0f
f2
f0
f4
26
f3
fc
f6
fe
f1
f6
14
ff
f9
d3
32
fb
f1
e7
e3
f6
0c
d6
ed
c8
e2
f1
f5
ec
f9
08
1a
f2
f4
fc
0e
16
f6
07
10
09
c3
ef
fb
03
fa
1d
10
cd
eb
e8
e6
1c
b5
ed
0c
ff
ea
9c
1c
eb
f0
12
e7
ff
fe
e9
d1
e7
f2
e4
07
21
cd
14
19
30
fd
0f
ea
06
fb
f9
ec
10
e4
f9
2f
0f
03
d5
28
d1
ff
c9
18
01
2a
f6
e6
d7
3b
e9
f6
1e
01
ee
fc
11
01
3e
f7
ec
f8
d4
d8
d7
e5
f2
2c
ee
c6
fb
ee
c8
f7
f8
a5
d8
0a
fe
a6
e4
15
d3
24
28
e4
e8
03
1b
f9
26
5f
f5
fb
04
dd
44
2d
ff
f4
1a
bd
bb
18
e5
1b
09
1c
fe
2b
d0
f0
da
30
41
bf
1a
02
e0
d6
f5
e6
ce
0d
fd
0f
18
dd
03
f5
ef
1c
10
f1
15
f9
de
f6
fa
fd
13
da
07
0a
1f
eb
03
fe
f4
fd
17
0e
d6
0e
ca
1c
f8
15
f9
04
fb
e7
e8
d7
f0
13
fe
18
0f
ed
db
f1
0c
09
0d
11
f7
f9
e6
03
fb
14
f9
eb
e0
0f
05
ff
f7
17
08
da
df
c5
ff
39
05
de
02
c5
d4
fd
1f
e0
01
10
d2
e3
dc
e8
ed
ea
12
d8
1b
0f
1e
ea
eb
13
eb
0a
12
fd
39
27
c7
d2
02
e5
e9
32
07
fd
06
07
0f
2c
ca
ea
09
35
57
e7
f1
f8
e1
0b
13
cc
01
03
da
e0
15
25
16
1c
fa
cb
14
08
c3
ee
0d
eb
f4
1b
1d
10
fb
23
08
03
1f
fc
fc
2b
0a
f0
21
f7
04
e3
e6
3e
fc
17
ea
30
f6
05
d8
e7
33
33
2b
ff
cb
0d
f1
ec
05
ff
16
03
05
21
14
23
e3
3e
03
e2
d5
05
ff
de
0d
ed
eb
0c
fe
07
f4
f9
dd
fe
fb
03
e6
fb
01
fb
f9
ff
d7
11
f0
f9
0f
09
25
f9
1b
09
14
eb
f9
24
e2
ea
da
fb
f9
02
ff
eb
f2
0f
e1
09
d1
f6
13
2c
e9
d4
2c
fe
1f
0c
13
f0
03
09
01
e0
1c
0b
f1
e4
f9
f1
f7
cc
fe
26
15
02
f6
fa
e3
df
10
f2
10
1a
fb
05
05
01
d4
f7
f3
0e
dd
16
f8
e4
f7
22
ee
f7
f0
f5
21
24
e7
12
01
d0
da
00
e8
30
0a
f6
ff
35
e1
06
28
f4
f7
fb
de
ec
e8
01
06
f2
f1
e8
19
15
0a
f9
09
18
f7
01
0f
e9
1b
e9
15
fd
08
ec
17
fd
e5
1b
0d
0f
0c
03
0b
04
13
ed
f6
10
0b
02
04
1b
f4
13
12
e8
14
ee
10
18
02
ea
fa
f4
f5
18
e7
07
03
10
1a
03
15
ec
0a
15
0e
fc
0d
0d
e7
f1
19
e4
11
ef
ed
fa
0c
fe
e5
ea
f7
08
ed
f2
00
fb
14
e4
1e
ea
0f
02
02
f3
fb
d2
09
03
ed
f4
f2
1d
e7
0f
ec
fe
fb
03
09
e7
dc
e9
e3
0b
e6
fb
12
0e
fd
10
08
e6
08
ea
ef
e1
e0
d4
e8
fc
1c
fa
37
ed
e1
f0
a4
f4
04
d1
c0
fc
f9
f8
00
fa
ee
de
fb
df
d9
18
e9
be
fa
17
d4
05
0d
ea
07
17
05
f1
2b
07
19
fa
e7
dc
55
2f
0b
d4
04
c8
00
08
df
d8
20
26
e5
27
08
eb
a3
40
04
f9
21
e3
cf
d2
bd
ec
0b
0e
19
eb
1d
cb
20
fa
12
24
fe
e7
e4
10
f8
fc
09
29
14
18
05
05
e0
ed
fe
e5
e0
d2
2e
e3
1d
0e
13
17
0e
e4
b9
0d
0a
f2
cb
eb
e2
f2
ff
ef
ef
e0
00
0e
15
22
eb
f2
d6
15
dc
0b
f4
e3
f5
0c
08
10
11
fc
01
0d
03
ce
ee
0e
0f
35
e6
db
08
01
16
13
06
f8
fe
0f
1e
fd
11
e4
1b
17
00
24
00
1d
0d
f5
2c
28
e9
07
01
09
0b
16
d0
e0
f9
f3
e8
0c
ec
20
24
17
05
f5
11
f5
f3
0d
0c
e6
fb
f5
f1
f5
f8
fd
14
14
1b
e7
20
e5
08
dd
26
2d
ff
f4
e5
13
0e
e4
f7
12
05
e7
16
32
00
ff
05
13
fc
33
33
2e
0c
f3
14
0c
f0
2c
f1
17
fb
05
00
f4
f7
02
00
f2
e0
fd
05
fc
fc
10
0d
fd
0d
fe
2c
0e
fd
1c
f1
f5
12
f2
e0
10
f7
02
01
f0
00
01
05
23
ff
fd
15
10
02
f6
ea
e8
ee
e2
14
f6
04
09
1b
db
10
14
02
11
de
fe
07
0b
0f
f1
04
12
11
da
e4
eb
0b
11
e8
0e
f7
e9
f7
0c
11
0a
01
00
f0
e6
18
fb
0a
f3
13
f0
03
fa
ef
16
1a
f4
1d
e8
01
07
ef
01
f7
19
f5
03
0a
08
0e
26
1c
fb
ff
2a
e1
ff
0a
e7
01
c5
f2
09
25
11
ff
ef
e7
26
c0
ff
cf
e1
db
f5
b9
1f
1e
d6
28
ee
a5
26
e8
07
ce
0d
f6
03
f4
1a
f0
d4
d1
0d
26
14
09
0a
30
09
2f
c7
f2
f0
02
54
fc
e3
29
e6
ed
08
0d
de
f2
07
01
f1
f5
e8
07
0e
10
33
f4
29
00
eb
05
3c
08
4d
ec
fd
1b
f3
01
e9
c4
10
0d
ef
c1
f9
14
fa
f3
19
e3
06
fe
e7
1c
d6
e7
e2
d9
f4
1e
0d
f6
0f
02
f4
3e
f6
03
fa
00
46
0f
02
1f
f7
23
0b
13
01
fe
fe
01
1e
e5
fe
23
fb
fb
27
f7
36
fe
e1
2b
f6
07
2b
26
17
19
e9
09
00
10
f5
1f
f6
07
fd
07
24
08
e8
f9
0b
2c
1d
11
05
f4
f2
06
ff
ec
10
eb
05
08
07
28
dd
ee
f3
15
43
1a
06
0f
f8
f4
09
06
27
fd
d1
f1
ff
06
f5
eb
ec
13
f8
21
10
d0
11
ba
19
ee
fe
fc
12
15
0d
b3
04
f9
fe
06
0e
16
f4
da
0b
f5
05
c5
e4
f0
e7
61
ea
0d
29
df
e5
19
1b
e0
fb
f8
e2
14
f8
06
09
20
11
ec
0f
20
11
f5
18
13
f7
fa
e0
fa
fe
09
f1
f3
d3
f3
15
14
f9
12
0e
f8
0a
ef
f1
0d
06
ef
09
0a
19
e6
09
e6
1c
08
fb
10
f1
02
01
f3
1d
ee
f1
f3
0c
fc
e0
e5
e6
09
f8
eb
02
4a
e2
59
e5
de
cd
0b
34
05
ff
16
ec
13
fe
21
12
ef
ea
ed
27
0f
18
24
0f
13
ea
1d
3d
e0
f7
d1
05
ec
2a
0b
17
ed
ff
c0
1d
e8
06
0a
fc
f8
0e
03
0f
f1
f9
04
1b
01
eb
30
0f
05
20
d8
fd
0c
18
1c
fa
0b
f9
f8
ce
ef
d3
2d
26
06
ea
f4
0c
ed
fc
09
e1
1b
fe
08
fd
11
01
d2
0e
e4
0d
fa
24
f0
f3
17
30
05
14
eb
0c
11
0f
d1
ef
0f
e0
ec
27
f9
f7
16
27
12
3f
e7
0e
d3
f1
11
e3
09
ef
f0
05
2d
09
f4
ff
00
09
1b
eb
ed
c6
f2
29
07
0f
a4
fa
e5
ca
0c
f2
24
12
f0
04
ce
f6
fb
e9
de
f7
e0
17
0f
00
eb
e1
15
0c
dc
08
ee
e3
49
43
25
2c
d3
f9
ff
3f
ce
20
f8
0f
f1
e8
0b
f7
f0
0b
05
0b
d6
14
0a
04
19
15
07
0f
41
06
f6
15
0f
24
fc
fe
1e
dd
fb
10
05
24
07
22
17
fc
13
fb
2e
e2
0b
25
07
24
12
13
11
29
f1
22
e5
15
f5
f4
10
16
09
13
23
0f
06
0b
0c
08
eb
19
f2
eb
05
0c
27
01
05
1a
f9
0a
0c
05
f1
03
00
00
10
fb
13
ef
ff
08
11
11
f1
f2
06
e1
1c
f3
14
03
fe
15
ef
0a
fd
f2
e5
f2
1b
1c
f8
e5
e7
f0
e3
f1
0a
14
fb
f0
14
28
00
05
d9
09
fc
16
c9
13
f5
1b
eb
06
f4
ed
1b
12
f5
09
f5
e8
11
1d
22
fc
3d
e9
15
f0
13
1b
27
13
30
25
dc
c9
29
fe
eb
0a
39
2f
d8
08
ec
f4
07
eb
03
d3
fa
2a
2c
fb
27
0c
f3
e0
c9
f4
fb
0e
26
1d
e3
01
0c
55
66
d2
cf
3d
fe
1c
f6
21
b5
e2
f2
2b
1d
ca
eb
ed
45
ec
12
07
0b
12
26
e6
13
e1
f7
1c
f2
20
24
f0
0c
f8
14
02
e6
01
e5
2e
12
12
15
f5
09
16
18
3c
12
19
03
f0
e8
0a
04
01
0b
cf
e8
33
37
f3
fc
01
df
fa
23
16
eb
e9
15
f0
24
fc
0a
06
e6
e9
db
fa
11
0d
d9
04
0f
08
19
f5
0c
0c
1e
d5
17
ff
d8
09
06
14
0f
26
10
0f
fc
44
e4
11
12
03
04
ce
14
2a
06
03
df
ec
17
0e
f8
f0
f2
f8
f1
0d
e6
05
1b
ee
14
e6
b8
2b
f5
ff
eb
ef
08
eb
0f
f9
16
0f
ed
0e
1c
08
08
f8
1c
fa
1a
c9
04
e3
1f
3b
fd
e7
09
e7
1a
e4
20
09
f7
11
06
14
0b
07
f4
f3
ed
12
0e
2d
ec
eb
fc
0d
05
05
09
1e
05
d3
e7
42
2b
e1
0c
34
e3
0b
2f
0c
16
2d
19
ea
f2
12
26
e4
f2
1e
0a
00
00
11
f7
f9
0f
fc
0e
ca
f8
de
fa
e2
ed
e9
1b
fd
e7
12
f9
01
17
e6
0b
03
ef
ee
fe
f3
eb
a3
06
21
05
03
d1
fc
0d
01
08
f7
0f
ed
e6
0f
ec
04
f8
1f
d8
cb
ef
1b
eb
29
ce
e7
fd
e7
be
e9
18
ed
e5
00
3a
fd
ec
f4
22
07
fe
0d
e7
d8
0d
17
0a
09
00
fd
fb
fa
1f
ed
04
f7
eb
eb
11
e8
f5
0c
f6
25
00
18
f8
f1
d7
dd
12
1b
1a
19
07
09
e8
08
46
07
eb
28
11
0c
0a
0c
e6
02
f0
e8
05
18
04
06
e1
e1
f3
0f
18
23
13
16
09
0c
20
02
16
e7
f1
e3
20
0b
9c
1b
d8
ed
23
db
0e
2f
16
29
e8
0e
e3
f5
09
f2
30
15
11
f9
03
cd
17
0a
fa
12
ea
ed
25
50
04
1b
e7
e6
ef
14
ae
37
e8
03
f9
0b
08
00
cd
17
00
f2
c9
1e
2d
fa
f2
e4
ff
14
1f
ff
14
13
02
fb
0c
fd
16
ea
f8
17
1e
03
03
de
f2
df
fa
04
0c
e3
e6
ff
03
09
ea
e8
e0
05
ee
ff
10
19
07
ea
f9
f5
09
0b
02
0b
ed
f2
0c
0d
12
19
e0
ec
10
fe
ea
e5
df
f7
00
f0
f1
f3
3b
00
1d
e2
15
dc
00
c3
08
d7
1b
fe
b8
03
1c
f7
19
cd
35
18
ff
f8
d5
f6
d5
ea
dd
f3
01
0b
31
f6
41
e2
09
fc
ff
d5
08
e4
63
3b
03
ec
cb
26
f9
2a
ab
49
10
ec
05
0d
e7
02
be
fd
e0
d7
c7
1a
05
fd
14
fb
e5
17
cb
b3
c5
d9
da
4d
04
d0
00
c4
fb
ef
db
af
e9
11
ea
d1
04
f9
c7
1c
fd
07
e4
e5
1b
17
09
41
e8
07
0b
e2
2d
00
f2
fe
df
ee
bc
cf
dd
30
3f
0e
0e
26
fb
fb
be
0b
2e
e1
f8
f6
fe
f5
0f
0d
16
01
12
09
fd
07
18
db
01
02
fb
fc
fa
16
f0
f2
0b
11
f4
0c
16
e7
e2
f2
f1
ee
fb
17
17
17
eb
0a
e4
dc
e6
0d
ed
05
18
bc
23
33
30
f3
d8
fd
09
f4
bb
09
0a
fc
ee
0c
17
fc
f1
0e
0a
fd
e6
0e
0d
17
fe
05
0f
00
fe
d4
e8
08
25
25
f6
c0
f8
f7
0e
2b
21
02
00
31
07
cc
eb
ed
ec
ed
34
1b
50
f4
f0
0b
1a
27
fd
11
2a
19
34
e2
c4
12
f4
0d
ee
ad
e0
08
2d
00
ee
44
f6
09
f4
fe
3c
fe
e8
29
fe
f3
42
28
10
f0
12
0d
06
02
f4
fb
1a
db
15
ff
ce
0d
19
fc
e9
26
0a
f3
13
46
ed
e2
12
f1
11
e4
18
05
1a
e9
12
e2
17
24
e8
e5
fe
ee
e0
eb
d1
fd
08
f6
0d
e8
d1
18
fc
e9
de
06
0a
21
07
f9
27
f4
e4
15
24
02
fb
e4
f5
dd
2a
ec
06
e4
02
e7
19
0c
fa
03
e9
ec
e6
06
ef
16
00
f9
e3
13
d5
e4
0d
d5
0b
21
19
f9
00
c7
06
21
ee
1a
04
09
0e
35
ef
05
f3
06
e0
0e
d0
04
14
1c
d7
fe
28
06
14
f5
0e
22
04
f5
0f
e8
0d
ea
16
02
f8
e2
fe
fc
26
0e
f3
e7
fb
fb
0a
f8
11
fe
17
f4
f1
f0
fd
19
c1
ed
f2
f3
28
da
e4
08
e3
0f
04
b3
b9
f7
f6
d7
cc
ce
e4
0b
fc
0a
ef
02
19
23
fd
1f
dc
01
b5
e3
d8
11
e6
fe
f6
08
11
03
f6
ff
f5
e7
ea
ea
03
f5
ff
fa
0f
f9
fd
17
0a
19
fa
01
01
f1
01
1b
0f
0f
e6
06
14
ed
f6
16
13
f7
02
0e
e7
02
f4
ee
09
f9
10
07
0d
f8
e9
19
12
e5
0f
02
11
15
0e
06
fd
09
fa
ef
01
09
07
0c
fb
f8
f4
14
19
13
1d
07
eb
fd
05
18
17
e9
0b
0c
f8
1a
f4
14
18
d7
1a
07
f0
f1
ee
ec
16
de
f4
ef
00
0b
eb
0a
f1
09
ff
13
0e
0a
27
26
ff
fe
f3
ed
fc
eb
d6
11
e5
f9
d9
0c
03
e8
fb
f5
ef
e0
e6
f8
1b
08
41
f5
f0
f8
fc
f0
e1
01
f5
0d
0a
ef
f0
03
07
f3
05
9e
db
12
04
cd
0e
ee
f2
fb
b9
01
34
06
1c
0f
17
3f
f2
e1
e0
c9
35
fd
0d
1c
18
cf
bc
fa
ce
f7
ed
3d
eb
1d
ff
09
cc
1f
f1
e2
e6
e2
09
fe
ef
01
dc
ef
f4
11
24
02
d3
fd
24
0f
eb
f4
e4
09
fa
fa
22
fd
17
da
08
d1
e8
ea
ec
e8
ed
ed
f1
fb
ea
15
bc
17
02
ff
ed
17
b4
cf
02
f6
c9
18
e4
1a
eb
01
d5
e3
ea
1c
c4
f3
1d
d9
08
ca
1d
fd
dc
15
04
25
17
0d
f6
f8
fd
0a
ce
16
f3
3e
03
f3
02
17
e8
ef
fc
dd
e9
dc
27
ff
f2
05
19
10
1c
fd
fc
0f
f0
04
06
2c
04
13
ee
fd
d3
ff
e0
e1
fe
10
fd
f4
cf
fb
f7
d6
06
01
10
ec
fe
fe
38
f0
f4
04
e2
1a
fa
12
e6
02
2d
e9
50
ec
e9
09
e2
1f
17
0c
f8
f8
fd
f7
f5
15
de
e6
02
20
00
fb
20
09
1c
16
fa
21
ed
ed
13
e7
fc
25
fe
23
d7
f1
db
d7
d4
02
f0
fb
e3
00
12
01
eb
13
d6
09
08
eb
3d
e1
f1
04
ec
00
16
15
e6
03
21
00
09
e4
0f
ef
0c
14
12
f4
07
07
f3
fa
05
fe
f6
f5
16
06
17
12
ff
f7
19
11
1c
22
de
e6
dd
07
12
00
0a
ee
ee
de
fb
21
1a
dc
18
f1
02
12
f5
ed
fa
01
fc
e8
ed
e1
18
e6
e3
0e
02
f3
fe
19
f5
17
20
e1
3b
06
de
0b
f1
f4
fa
0d
f6
fd
2f
f3
01
ff
01
ec
11
05
07
f6
26
dc
2a
28
04
00
06
19
ce
e3
ff
39
03
1f
be
f3
09
fa
ea
1a
fb
ae
df
05
ed
df
fb
f3
ef
10
16
bd
e3
da
e2
02
ea
f0
1a
21
f8
08
1c
0f
2d
d0
f5
de
e7
3e
02
d0
08
eb
0e
ef
20
d0
10
f5
fe
f5
0a
0e
24
f9
1f
22
0c
06
03
02
fd
42
f7
12
23
07
bc
ed
bb
07
f0
ea
f4
02
d2
12
07
d3
f1
11
ed
0d
e4
d7
21
d6
f0
18
f4
05
12
27
0c
0f
1a
fa
1e
0c
0e
e0
ef
19
f3
fa
0f
f4
11
04
22
f9
de
25
0b
35
12
0c
1c
eb
1d
09
2f
14
04
e4
0f
e9
ed
2a
1e
13
f7
f8
d6
32
11
e6
1e
cf
f5
e4
2d
df
01
08
2a
f5
08
00
37
09
0d
1f
12
08
25
f9
ed
02
27
05
04
ea
d5
ea
38
1e
f4
08
0a
f5
ed
0e
f5
19
ed
e0
f5
12
fb
e9
0a
e5
fb
03
41
15
eb
ea
cb
f6
03
fe
f2
ef
f3
30
da
fe
e3
f3
02
2c
e6
e5
f3
f3
08
20
ea
e1
ff
ea
29
dc
04
21
fc
0a
12
18
0a
fe
1e
0b
15
0d
ef
16
ff
fc
18
06
f4
f1
f5
f4
1c
e5
02
e7
f7
f4
e7
e9
ea
e8
16
04
17
10
dc
f4
eb
eb
14
ea
0f
f8
0d
e6
27
05
09
ec
fe
06
17
1d
f5
00
f2
ff
19
1a
f2
07
e8
0f
fa
eb
e5
e8
13
1c
e9
f4
27
f7
42
fb
fd
00
21
3a
09
0a
18
f4
0d
02
1c
d7
f2
f5
f6
19
f2
f6
1b
0e
0d
f6
0e
15
fe
f3
cf
13
eb
28
14
08
e8
e6
d6
18
18
17
1b
0f
e5
fa
23
ef
ea
25
16
eb
0c
d3
fc
ff
0a
d8
03
e4
20
27
f8
15
09
fe
27
f8
f9
fa
03
25
09
f7
fa
17
d7
13
fe
f5
0f
dc
03
f5
fa
0b
03
ee
ee
24
38
28
df
e4
d7
11
f3
01
00
01
ef
d8
e5
e9
ff
db
e6
08
db
20
e8
c7
e8
ee
ed
f8
f9
fe
34
e4
11
0c
0d
f3
06
16
f7
f5
38
08
19
ea
f2
f9
0c
e2
e4
f2
d1
eb
03
d9
14
22
ee
0e
0e
18
ce
10
ee
fe
0b
0a
14
e9
05
ff
07
da
10
30
e9
f9
ff
b5
21
29
e9
27
0e
b5
dd
26
f2
1b
f5
d8
d9
ff
03
d2
e2
f6
25
e7
e2
0f
0c
24
17
f4
0d
f0
1c
f3
fd
13
f3
21
f6
f6
ec
f2
2a
ff
11
0e
f9
f7
f4
13
20
fd
18
ec
2a
18
f6
2d
0b
e1
25
fa
fe
1c
f0
00
e2
e6
c3
fe
d2
ea
05
db
fb
03
0d
fb
05
f3
e9
fe
f5
f3
43
f0
fd
27
0b
0b
15
1c
14
13
11
ee
07
10
17
f9
1d
19
13
f9
ea
f7
f3
1a
fb
df
13
f8
04
07
00
00
ec
e1
0c
1f
34
00
e5
f2
f4
02
06
ee
00
1f
f3
eb
1c
19
d7
0a
14
03
ff
06
dc
f4
fd
ee
e0
f1
ec
f2
ee
f6
fc
11
01
e7
0d
0b
f7
f2
46
10
0b
fe
18
f1
31
f8
03
13
d6
d8
33
e8
0e
08
26
28
e5
f7
f4
00
eb
04
5c
e8
03
14
2b
ec
ea
1d
15
f0
cc
38
f7
1a
e8
fd
c9
19
0c
35
37
e0
d9
17
00
03
0c
0a
09
de
cc
1b
15
13
e9
22
28
27
00
ea
14
f6
17
ee
2a
f4
27
38
20
e5
0b
01
f9
f8
25
1d
f7
16
14
29
0c
f1
16
eb
f9
f8
2c
1a
07
f3
10
dc
04
30
fb
27
06
e3
f7
21
0a
03
fe
fc
01
db
fe
f1
ec
22
12
03
fb
da
18
ec
13
00
0f
13
2a
1d
c8
0b
00
e8
13
01
e0
ed
24
e5
fb
fb
0f
14
21
08
07
f4
ed
06
dc
f5
0c
15
1e
fd
12
18
12
27
07
e6
d9
e5
ff
2a
f1
13
f7
0a
0a
f3
f3
16
fb
dd
d9
fc
d1
e6
f0
19
c4
00
11
ea
f7
f8
1d
29
ed
21
fd
10
fb
f4
25
08
06
13
f1
05
05
0b
1b
0a
1f
ea
de
fa
21
d7
23
0e
ea
17
15
fc
e7
f9
fe
f1
26
1b
e6
0b
05
04
e9
f4
02
ef
d0
fa
0b
15
ff
ec
ff
ff
f2
1a
e6
f0
f5
e2
fb
01
f7
fc
29
08
11
29
00
05
2b
11
fd
e6
fc
01
3d
01
e9
db
00
ec
06
0e
01
08
dc
fe
ee
f4
df
e0
00
da
df
f1
f1
da
23
f5
f6
0f
e9
f5
da
d4
ea
f7
fe
e4
ed
0b
25
0e
ff
11
06
e5
e7
fe
e1
fb
f7
ef
d6
05
fb
d3
01
e1
16
fc
e3
04
23
31
fd
12
11
0c
fa
f8
0a
ec
05
28
03
1c
06
0a
de
01
08
f2
ec
fa
ea
12
f0
e4
f7
fd
2a
0c
11
2e
04
ee
f0
e1
14
12
28
20
fe
b5
fd
2c
06
01
09
05
11
d6
f6
e4
f7
03
1a
e6
14
d5
02
28
de
03
05
fb
1f
07
f9
05
15
e7
15
d5
d5
e1
26
0a
f2
fc
d1
eb
0d
e0
f1
ea
03
1b
e1
cd
d9
e4
f4
0b
e9
07
41
f5
05
03
f6
c9
f0
f1
03
e7
da
f2
29
15
e2
16
02
e7
c7
05
fb
05
e6
ec
b2
f2
da
f8
e9
00
05
1c
c4
1f
03
0e
ef
ee
06
f2
f1
e7
03
0a
ed
00
eb
12
26
1b
f2
0c
f8
05
13
e4
0b
08
17
e5
0e
ea
fb
fa
07
ef
05
eb
04
0c
ed
ed
06
08
08
c4
05
23
14
ee
e9
18
fb
e9
eb
11
eb
f2
eb
f8
fc
04
00
07
06
02
0e
0a
ef
11
f7
08
31
fb
00
f8
f1
df
1a
13
ec
0c
c6
16
01
e3
ed
10
0a
fe
f3
d8
fe
0c
d1
dd
1b
f1
04
e3
04
f8
1a
d6
ed
f8
ed
e7
cf
fe
37
1a
d9
2f
f1
fb
ce
1e
e9
2c
08
04
ac
f0
f7
de
3b
d7
18
32
d0
0a
fa
f2
34
e7
09
0c
da
02
05
09
02
2c
dd
ed
f4
f4
e8
17
ed
be
0d
03
20
de
fe
fb
e6
03
23
db
ed
f2
ee
01
07
36
fa
da
11
d4
04
e8
dc
f3
da
db
d4
b9
c6
13
30
db
01
fb
02
ef
f8
b0
0d
ca
1d
21
19
df
33
28
fc
0a
22
f8
fb
f2
07
f1
08
00
f1
13
1a
16
16
fd
03
01
f4
e9
06
fc
06
11
f5
03
ff
f7
24
04
0d
eb
fb
e6
17
0c
fa
f4
14
f7
11
23
e6
0f
f3
03
e7
0a
00
f6
10
f6
f7
fa
fc
0c
03
0c
ef
0e
ee
09
1d
1a
cd
07
f9
ff
e4
20
17
02
e2
ef
0b
0b
ea
e1
f7
fc
07
cd
31
06
09
fb
04
fa
fa
e3
32
0b
fd
e3
08
09
fd
12
f7
00
3f
09
04
ad
0e
ef
ec
e5
12
13
fe
06
13
d8
e5
f0
f3
11
f9
20
ff
fc
1f
18
31
11
25
24
fc
09
04
ec
1d
16
e8
22
10
f2
ea
22
ea
04
2c
00
0f
1c
0e
ea
17
f1
11
e6
25
d6
f9
07
eb
fa
fd
03
e1
e8
e5
2e
e7
0e
da
0d
e2
fd
d1
16
fa
bd
07
0b
f3
f4
f8
e2
df
f7
2b
cf
13
f8
28
30
0c
00
1e
fc
d6
17
26
e1
fb
ed
02
e1
0e
e4
02
e3
e3
08
0f
f1
e3
e9
de
0a
f5
ec
d6
e7
0a
ec
1d
2d
12
0d
f7
fd
f0
f9
07
18
01
05
d7
ea
fd
10
d1
fd
00
c5
e2
0c
bb
f6
f1
ff
e2
07
05
e5
f5
e5
e9
18
15
1c
fe
f4
d1
f8
e3
fc
08
1f
c8
05
de
1f
15
f9
c8
00
b6
eb
0a
d2
fb
c5
f9
f8
fc
f4
1e
d4
e5
fa
30
0c
e9
ea
bb
17
0f
e7
fe
f6
c0
c4
19
1a
d2
0d
c4
25
f4
00
c9
d4
08
01
ba
fe
e3
ea
e2
eb
ec
0f
fb
f9
d0
19
06
fc
00
fd
f0
18
08
1a
ed
ed
00
f5
f0
0a
e9
0a
f1
10
06
16
06
0b
07
0d
e8
18
04
fa
08
fa
1a
12
f2
17
ef
ee
0a
00
0c
f6
ea
0d
16
fb
14
0d
fd
10
fe
00
08
ee
11
ee
16
f7
f3
f0
07
f9
f9
13
0b
12
11
e3
04
e5
16
fb
ea
e2
f0
e4
ec
fe
fd
18
eb
0a
fe
f7
f8
11
00
f6
f7
f9
03
d7
0c
05
02
1d
f4
11
e9
da
0b
0d
e5
f9
02
f0
06
1c
03
ef
00
f4
0e
07
d6
df
12
eb
de
02
05
f4
f4
04
db
d7
fb
13
0b
0b
3c
09
e1
f9
af
d3
12
f9
e9
e6
07
d1
e3
d8
e2
d9
fd
d0
16
32
fc
e9
15
00
d2
e9
14
f6
12
ef
ef
15
0e
1d
05
e6
1e
f4
27
f9
0c
45
dc
bc
e1
e1
db
ef
3b
18
0f
ec
f8
d1
c4
1d
1d
d7
e9
04
ff
b8
1f
0e
