55
ab
c1
4d
7f
57
f3
3b
ef
fd
f7
44
f7
f4
f8
61
eb
33
f2
15
bd
63
ee
ed
be
6a
f4
f7
04
eb
15
d0
71
d0
64
09
f9
ef
ec
c3
f8
2b
ed
f8
f3
f4
51
f5
ea
dc
5b
c5
f3
f3
b8
6d
d9
ef
25
59
63
be
22
c7
f6
4e
01
bf
20
e6
5f
f7
6a
f3
e8
4b
f8
ed
d5
f7
5e
08
4f
35
f8
f0
4b
3f
38
fb
f2
51
f8
f7
f4
f6
73
f5
f3
c4
ff
f6
f4
f7
de
f8
53
f7
d3
ca
51
c5
f8
f7
eb
54
f6
c7
05
ee
0c
f8
d6
1c
f9
42
f7
cf
