51
eb
9c
14
a6
61
36
8d
32
cb
57
93
2d
e3
56
9d
d0
e4
0b
c5
2a
36
52
ae
ec
29
cd
ec
e4
c0
67
eb
1d
28
2e
cc
36
3b
46
b3
f7
68
4f
df
39
14
e3
14
fc
62
60
cd
bd
be
ea
f9
51
c4
44
d2
47
a2
af
6d
71
f7
98
66
e7
95
13
bf
5c
9f
f6
ea
c5
f2
e9
70
ce
d5
2c
bc
cd
36
df
d3
cd
0f
28
ca
63
e4
1d
1b
f7
42
3c
40
23
8b
86
7b
42
42
04
05
0f
75
32
ac
4a
3e
13
31
6a
97
74
bc
66
bc
d6
77
18
c4
d9
4e
ed
d4
5b
be
1c
ef
cb
66
31
dd
ea
3c
47
b2
33
3c
4d
cc
e0
3a
fb
f1
5b
de
26
32
1b
16
22
cd
f1
38
76
95
51
c6
62
8f
54
c6
29
15
e7
ca
5c
9c
54
ce
3c
c0
1f
d1
db
de
77
a4
c7
f1
1d
bc
e1
fc
cb
bf
3d
c0
d4
f0
03
0a
d2
7f
5a
1e
16
29
e2
f9
cf
3b
ed
ec
09
12
49
c7
d1
d1
c5
76
c9
2d
19
b7
a0
03
bf
1c
06
c4
27
04
2b
92
32
d3
c0
63
39
d1
10
bf
3c
f1
d0
fb
b9
77
12
a3
d6
28
52
db
d2
de
94
75
