d8
32
1e
f1
d4
01
f0
f8
06
08
00
e8
05
fc
f4
cd
ff
01
0d
d8
22
e7
05
f1
2a
d9
f2
0e
df
0a
d2
2b
e7
2d
e9
d9
fc
f5
ee
13
03
ef
f4
04
fb
05
df
fa
fe
f1
cb
19
f7
11
2e
00
0b
f2
fb
dd
d3
14
ef
1f
0e
fd
fa
15
bf
f8
f1
0a
eb
eb
0b
cd
01
00
f9
f5
f4
fa
ea
f5
08
f7
f5
e0
f0
0f
f8
eb
05
fc
f4
e5
d4
f2
0f
2a
f3
09
ef
f7
fd
03
f1
f0
21
14
ef
21
0c
f6
e0
e7
03
24
f1
ff
ea
fe
f8
f0
f4
df
0b
16
05
0b
f7
f2
07
fd
04
f1
f3
05
ef
f0
f8
fa
0f
00
0c
01
ed
0d
fe
fc
03
0f
fe
f2
f7
09
fb
ff
ed
14
09
04
10
05
fc
fb
fb
0c
f9
fa
06
01
0c
ff
07
00
f6
f0
09
f6
0b
08
0f
f6
ee
08
06
08
f9
00
f7
f9
0b
0c
0d
f1
0e
ef
0f
0e
02
f6
0d
ed
0c
f3
f6
03
ef
07
02
ed
09
07
02
f2
0f
f3
01
f8
0c
03
06
f0
f1
ec
0c
11
f2
f6
f8
f3
f8
ee
f5
07
0a
03
f3
10
05
0c
fb
04
ed
f5
f4
f3
07
f9
fa
ee
f8
0d
f2
0c
19
fe
03
f8
0f
17
0d
06
f6
f1
f9
08
09
ed
f0
02
f3
ef
04
ff
1c
15
f1
10
03
1e
ef
f2
f5
f4
03
17
03
f7
f7
fe
ec
fa
f5
01
f3
fc
f7
f8
0c
fb
fa
f3
fa
f7
08
00
f3
0e
0f
09
07
f6
ed
1a
17
03
06
f6
06
09
f2
02
ff
f4
0c
f1
0a
f6
01
fc
f9
f6
05
f4
12
fb
f2
fe
f5
f9
f5
ee
02
04
ea
f4
ef
0d
00
02
10
0a
ec
f9
cb
08
0e
01
07
f5
01
f4
19
ee
06
10
f4
f2
03
ff
f4
fd
f7
0a
fd
13
1e
07
fd
0a
07
f5
f9
08
01
08
0b
0b
11
fc
0b
fb
fa
f1
08
0d
f2
f7
0a
f5
07
0e
07
04
ef
f7
fd
ff
09
0f
04
00
05
13
05
f9
0a
0c
0f
07
f7
fd
f9
15
0e
03
0b
0b
f9
0e
0a
09
f7
07
f3
f3
09
0f
0f
ff
f5
fa
f5
08
f3
f3
ef
fc
0a
13
03
11
07
f8
0c
f9
fe
0e
10
ff
ef
fa
08
01
0e
02
f8
f3
fe
fc
e2
0a
fe
fd
11
f2
0a
ef
ff
f9
0e
f6
02
09
09
f5
f4
f0
05
f3
fd
0b
0b
f2
f1
f6
0b
ff
08
06
01
0e
ec
fd
fe
fe
fb
f1
00
10
17
e8
04
05
1c
0f
fd
10
f3
04
06
08
ed
04
f4
11
0a
10
0f
f2
07
19
e9
09
01
2c
fe
fe
0f
07
fd
f4
07
e7
26
ec
ed
fa
00
06
f5
2e
06
f7
f3
00
14
08
04
03
1a
19
03
03
db
fb
ff
fb
0d
08
1b
f3
21
dd
fc
ff
11
ec
05
f0
09
01
24
fa
0b
0a
06
08
0d
ef
05
fe
17
0c
00
02
17
0f
11
07
f9
0b
0d
f2
fa
0a
0e
fd
ec
06
09
ef
0b
f6
f0
09
02
ff
fd
f8
17
02
f0
0c
12
1b
0b
05
f0
01
ee
ee
01
02
fd
03
0f
02
07
f3
fa
0a
eb
fb
0a
12
0f
f0
01
01
05
0b
ee
11
09
1f
fb
fa
fb
0b
f0
ff
e9
05
f6
fb
1b
fc
f8
05
03
05
13
01
0b
0d
ed
fd
f5
0f
ed
0d
f7
f5
10
08
f5
e7
f3
0d
08
00
fa
0a
ea
04
05
03
f3
f5
13
f3
06
12
0e
01
e6
10
03
ff
17
06
0a
05
fc
04
11
0c
10
f7
06
10
f7
0c
09
fd
0a
01
0b
f1
05
02
00
09
fe
fe
06
fd
05
f7
fc
0b
eb
0e
fd
f8
f9
04
0d
00
f0
fd
e2
ec
01
e0
fb
f6
00
05
02
e7
f1
fc
fe
09
ee
0f
0e
f0
e6
f9
0a
06
0c
00
f4
e2
fb
f6
fd
ff
fd
f7
fc
f5
1d
f8
05
00
1d
f2
ff
ef
ff
06
df
0f
00
0d
ea
e7
ef
00
f0
15
f6
e9
09
f9
f9
f8
e5
0c
f5
06
f6
0f
f5
f2
29
f8
f5
07
01
f0
00
fe
eb
11
fd
00
f9
12
d8
ec
fb
05
f7
01
f4
f1
f6
eb
12
05
eb
fb
04
fd
f4
fa
07
f5
01
fd
04
ff
f9
f2
14
eb
eb
fc
fe
0a
de
f2
0a
f5
f6
05
fe
11
0a
1f
ed
0d
10
fd
d8
e5
ef
fe
f4
09
ee
05
0a
ef
f3
fa
03
0c
e0
2d
23
f3
d3
0d
ee
ea
f8
f2
ed
e2
f9
f2
fc
ed
f3
cc
0f
dc
3a
03
0c
f5
39
01
f7
0f
c9
02
cb
1f
d5
39
de
e6
da
fa
05
3a
ed
d5
ef
0a
05
f6
f0
01
02
f2
fa
25
f3
04
38
00
ff
0d
fc
f2
ef
41
de
27
09
e6
ef
35
c6
e7
f3
02
09
fe
00
ec
f9
f8
01
ed
e6
f9
f9
be
0b
0b
e3
cc
de
f5
eb
e7
ed
f7
08
02
e8
0c
f4
3f
d9
05
05
0c
0b
00
dd
f2
16
32
df
2e
01
eb
f6
ec
06
29
cb
08
cc
f6
30
d2
fc
e6
0b
19
d0
48
2b
e7
de
f1
ec
ea
f6
01
06
db
fb
04
f5
c8
f8
d0
0a
c8
3d
d6
03
ef
1c
f5
f8
00
dc
f8
ee
45
e1
2c
c6
e3
da
0c
0b
34
f3
ec
02
ef
f7
f6
cf
05
00
06
d5
26
03
ef
48
f3
f0
f7
f0
de
d4
24
ce
23
0c
f3
03
22
bb
e8
e2
ef
d1
f8
f9
e3
f5
08
f6
fa
eb
f6
d2
d1
08
f1
df
d4
e2
08
0e
f0
f6
fa
02
04
c9
f9
f9
2c
c3
09
00
09
00
ff
e5
f5
1a
30
e1
28
ed
04
ea
f5
f3
2c
dc
fc
dc
f7
25
d6
f2
ec
f4
2f
07
09
13
f4
05
f7
ff
ed
10
ff
01
06
f3
f1
01
0f
00
20
f3
26
00
fb
fc
f9
02
07
f5
00
17
fc
17
f1
fc
f2
01
16
1d
05
ff
f7
0a
18
ee
f2
10
ff
f7
f6
02
05
fb
f2
f0
02
f1
01
03
0c
18
08
f8
ec
1c
ec
08
06
00
ed
24
f4
e0
03
fe
09
11
f2
ff
f7
fe
fa
f2
fd
f2
1d
0e
0c
ff
0d
fa
07
09
fa
fc
f8
0a
06
02
ef
00
e8
07
05
f9
f5
f7
fd
f7
01
e7
0c
00
f3
fe
05
14
ff
0e
e6
0f
02
1f
ed
f8
26
07
f9
05
f3
fb
1b
fd
ef
cd
f5
0b
f0
0d
ed
ef
08
f9
f2
07
e2
f1
f0
09
0f
34
ef
05
f5
0e
fa
ff
f1
f3
f0
ef
2b
e5
19
e0
dc
f4
0c
08
00
07
ec
f7
03
fa
f3
eb
ec
f9
08
e6
1a
0a
03
26
d6
f8
ff
01
e7
f8
19
f7
25
00
ff
08
17
d4
ee
de
04
ee
ee
f7
da
00
ef
01
f7
f8
04
f8
e9
0c
0b
fd
fc
e2
f7
03
ed
ee
f4
11
ee
e2
ef
fb
20
f9
01
fc
fa
01
02
db
ec
1c
26
f2
23
f5
0a
fb
f9
f9
fc
f6
04
ef
00
ed
de
02
f1
f6
00
26
c0
c6
14
3f
1b
f1
19
07
f6
00
14
05
fd
02
17
f1
3e
fc
03
c8
16
f8
06
ce
0b
f0
12
24
fa
12
e1
0c
e6
1e
1c
04
fc
09
cb
fc
11
fd
f2
f4
ef
2a
0f
f3
ea
2b
e7
f8
0b
ca
2e
f8
fc
29
0a
16
e7
2d
ca
12
2d
f8
e9
2b
fa
1c
06
1e
02
03
23
f1
05
fb
fb
14
ea
14
1c
01
04
18
32
15
08
f2
23
01
06
07
f5
25
0b
04
d5
35
05
0b
10
ff
0a
26
ee
e6
cc
13
db
05
fa
ff
18
f0
cf
24
f7
14
f4
c5
0b
f4
35
f5
d3
33
ad
b6
2d
39
34
0b
46
fe
0d
04
2b
07
f7
f5
24
02
30
08
0a
c7
3b
f9
01
ab
24
12
fb
1a
f5
28
bb
23
d0
4b
1b
08
09
03
d4
f0
44
f9
fc
08
fc
2f
01
06
fb
36
bc
fc
f4
aa
3a
fa
f4
58
41
2b
b6
34
c7
03
3b
0e
d1
2f
05
31
0f
49
ec
ed
3a
ff
1f
f6
ef
37
29
4f
40
05
f4
39
3b
43
0d
ee
48
0f
fc
00
0f
31
f3
fc
c2
22
f0
02
09
f7
0e
2f
ff
bc
d4
2b
af
08
0f
f8
37
fc
bd
1e
0f
29
e4
c0
27
0e
42
0c
ba
32
ce
cb
2b
26
20
f6
29
fc
08
06
1d
03
0a
f2
3b
fa
33
fa
20
cc
11
04
f4
cb
13
04
f6
28
f8
26
dd
24
dc
20
24
09
04
fb
da
f8
14
06
11
f2
f4
14
f1
05
ee
08
c2
01
ec
dc
11
07
0d
12
1e
1e
c7
15
e8
f0
1e
f3
e7
25
f1
0b
0e
22
f0
ff
1c
07
06
f3
fb
27
fd
0f
29
00
05
22
36
1b
ec
f5
20
0d
ff
0e
f8
2f
f3
ec
dd
18
09
05
f8
04
f7
20
f0
d2
d9
39
c6
f5
08
06
2a
f1
ba
18
12
1f
f0
c9
1c
10
28
ef
ce
f6
18
26
00
e2
0e
fd
ff
06
ef
0a
e8
fa
fb
02
03
0c
0a
00
db
06
07
07
ee
2a
fb
07
ee
e5
00
e0
10
fc
fc
f0
e2
f5
fc
f3
23
fa
d3
05
0e
f9
0d
f0
f3
0d
04
ee
0e
fc
0b
11
20
01
05
04
01
01
1d
ed
1a
f0
eb
07
22
d5
f7
19
f8
0e
01
f0
ff
ef
ed
ee
07
f7
f5
fa
db
06
ee
fb
f0
12
00
f9
01
0f
05
02
ea
fa
ff
f8
1d
e8
f6
f1
f2
f0
02
08
fb
12
11
f7
12
10
ee
fe
e6
f5
09
cf
f7
d9
01
1c
e9
fb
ec
fc
14
40
ad
be
27
4e
2d
f5
1e
ec
fb
f3
2a
02
ff
ef
3e
f2
2c
06
2a
b2
37
03
03
c1
47
0c
0f
36
f9
1e
c4
20
cf
58
15
2d
06
fd
af
ef
31
ef
02
0b
0e
33
0a
06
00
2c
d1
0d
f1
ac
27
f0
fc
3c
36
4e
c6
48
c0
10
2d
0c
d2
24
f8
20
04
2e
04
ef
38
09
0c
fb
fc
39
20
48
18
0d
fb
2f
36
45
ec
f4
27
01
ef
04
01
32
fd
0d
c8
29
00
08
fa
04
ff
1a
f0
cc
ca
2e
bd
fc
f2
0b
3f
ee
a0
1c
0d
21
e3
cf
19
f0
35
f2
b3
ec
22
03
d7
df
db
f0
eb
ee
0d
ed
e9
00
fb
f2
da
f5
d9
f3
02
38
fd
ff
10
0d
fd
07
08
03
f3
ef
0c
dc
13
f3
f9
e9
f6
00
15
10
ed
ff
0d
ed
f1
f2
05
f9
f5
ea
07
0e
0b
10
d9
fb
07
03
f0
f2
07
06
0c
0f
ea
f7
0a
f9
02
cc
fc
e3
04
fc
d0
fc
f3
f3
0e
e6
ed
ef
0c
f7
fb
f6
de
f5
03
01
e7
0f
08
f7
fa
e9
04
0c
02
00
f2
ee
0b
04
04
f1
0f
f8
1c
f5
0a
05
f5
f5
db
0a
fe
f2
0c
fa
fb
f1
fd
11
f5
fa
13
e6
1c
13
01
d6
f9
fb
06
fc
fb
11
df
05
09
fb
df
f4
f2
0b
e9
25
ed
ee
ef
1d
e7
ff
f5
f0
fa
e6
0c
f8
1f
db
d8
ec
02
08
25
09
e5
0d
02
f8
f4
eb
f2
0e
f4
e8
2a
08
f1
23
f3
05
f7
00
f5
fe
20
e3
10
0b
01
08
1b
c9
ee
ef
00
e4
fe
10
e2
fd
ec
00
f5
e9
ee
f0
de
06
f8
e6
de
08
f3
ff
e9
00
06
fb
e7
f8
fe
f3
2c
d1
0b
08
09
ee
f2
03
f2
1b
0a
03
24
06
f5
f1
f6
f8
1f
da
04
ed
fb
1f
f0
08
f9
05
07
0b
fd
13
f3
fa
18
f6
04
ef
f3
f5
f2
08
05
fd
0c
09
01
ed
f7
fd
07
0a
04
f1
04
0b
0a
0b
f4
e8
ff
00
03
1c
e8
eb
f5
03
f6
ef
e1
0c
0a
f1
ef
0c
02
ec
f4
0a
fb
06
f4
0f
0a
09
ec
08
fc
fb
fc
ed
0c
fa
03
f4
fe
f8
08
03
03
ff
02
0b
f7
f3
fc
0c
0b
f8
f6
0b
fd
03
00
fd
f3
0e
fa
f1
08
0b
02
da
03
10
fb
f3
02
ff
ee
08
0e
0d
02
12
0b
f8
f6
f0
14
0a
0f
fe
fc
fc
02
06
ec
ef
fb
0f
ed
f2
0d
06
14
f5
12
0c
d2
d9
f3
fd
f4
00
0b
02
e5
00
fb
0c
d1
04
e4
f0
f9
26
d4
0f
00
31
ce
f0
08
f3
f1
e8
2d
f0
23
e0
dd
05
f7
04
20
f5
ee
f8
fd
0e
fb
ee
03
fa
0c
df
fc
11
fd
30
ec
f2
02
06
f3
de
1e
f2
0a
f2
f1
0a
08
de
f9
ed
fe
d7
f7
f0
e8
0d
fc
ff
06
e8
fb
db
ee
f8
ee
e5
e6
e7
fa
04
e5
08
07
0e
e8
ec
f1
00
1f
0d
fb
f1
03
01
03
dc
fc
ff
02
e9
10
07
f7
06
e7
fa
11
ee
f7
04
0a
00
fc
0f
f4
05
10
12
f0
e5
0a
08
f8
ef
1f
f1
ff
09
0c
ff
03
07
08
f2
16
f0
06
ed
0e
fa
0a
de
07
04
f3
f7
08
05
ff
20
fe
1d
03
fe
0c
fa
e7
04
18
eb
f9
ff
ef
21
09
08
06
14
db
0b
01
fa
15
fe
f6
f7
0d
0f
ea
11
f5
fb
18
04
ed
1a
ff
1e
0c
1f
0b
f6
13
0c
06
01
0b
0f
01
22
1d
f2
0d
07
07
0c
f2
01
0d
fb
f4
18
08
16
f8
08
de
02
ec
fe
11
fd
fd
fa
fc
e2
e5
16
e5
11
0b
f6
22
0a
f0
fd
f3
fd
ee
ea
ff
f7
0a
fb
f7
04
05
f2
07
ef
f9
0d
ff
0e
07
0c
ee
fc
f6
f7
09
08
08
06
ef
07
1a
fa
f1
f7
03
03
04
fb
0d
e9
07
0e
06
0a
00
e4
e9
ff
f9
fc
05
00
0b
0a
ff
fa
09
fa
ef
00
06
06
04
05
1a
02
f9
ef
0d
03
f4
ef
02
f7
fb
0d
10
fa
e9
08
fd
0c
0c
f8
f5
0d
fb
07
0d
fd
f7
09
ee
09
eb
0e
0a
03
fa
00
f7
0c
fd
ee
f8
05
0f
00
fa
f6
02
fb
fd
f4
0e
1e
06
03
fa
10
12
03
f1
e2
fb
0c
eb
f1
0f
f5
f2
e2
ec
0e
fc
f1
0f
13
c5
e4
17
22
1c
05
19
f2
0c
04
1a
03
0b
05
13
04
2b
f6
18
da
26
12
04
dd
27
0e
07
09
0f
09
e4
26
d7
35
fe
1d
ff
f4
de
09
1b
06
01
ee
0d
1d
04
f0
fc
15
c5
06
ef
e3
13
fd
f8
0f
26
26
d7
0e
d7
fe
22
fb
df
31
f3
2e
fc
29
f8
06
20
06
f0
f0
f1
25
08
2b
0f
fa
0d
06
19
0d
08
07
17
00
ef
0d
0b
28
02
fd
db
22
0e
0c
0e
ea
01
14
ff
d2
d5
0b
d9
f2
e9
0b
0f
fc
c7
03
fd
fb
f3
d7
0f
ff
26
f2
ec
09
f5
04
01
10
fe
03
fc
00
03
f5
0d
06
06
12
fe
04
0d
11
f4
0b
03
07
0a
fb
09
f6
0c
f1
10
0d
f1
09
0e
04
03
08
12
06
f9
f4
ef
f7
12
fc
fd
f9
10
05
fb
06
fb
fc
04
ef
fb
f0
fe
f6
0d
00
f0
0f
0b
f1
fc
fb
f9
0f
0f
f2
07
f6
0d
0e
0e
fc
07
09
f4
11
f4
ff
fb
ff
fd
07
09
06
0f
fb
ef
fa
f6
07
f9
11
09
0a
f2
fe
06
fa
05
fc
fe
01
fa
0e
03
f5
ff
11
11
08
f8
f1
09
06
0e
fe
0c
03
02
09
f8
06
11
14
de
f3
04
25
13
fd
0d
06
07
05
09
06
0a
02
1b
fd
0c
f6
07
f4
16
08
f6
e6
04
03
f1
03
13
06
e2
1e
e9
26
0f
09
f5
f2
de
0a
fd
fd
f1
fd
00
19
0f
f2
05
12
e0
f0
0d
dc
21
f5
0a
f9
0b
0d
e9
26
f0
f8
06
0b
de
18
ff
32
ef
23
f8
fd
0e
09
ee
fb
05
2a
17
26
08
0c
fa
05
05
0f
ff
ff
1c
ff
fd
fd
f8
0e
07
ff
e7
0e
f5
01
0f
fa
08
10
0d
e5
ee
04
f4
09
f7
07
0f
02
df
fe
f8
f7
f6
f1
12
fd
1b
05
f0
10
ff
16
02
0d
00
02
03
01
07
0c
19
06
f9
f7
1c
f3
1c
07
fc
03
1c
ff
10
f9
14
05
07
04
f5
00
11
1b
fa
08
f5
04
04
00
00
f5
fc
fd
10
f4
0f
19
f8
0b
00
fe
10
f2
fe
f5
fe
f7
05
fd
0e
fe
f8
f6
12
f3
02
f5
1a
f5
03
07
0f
00
fb
fd
16
ef
0e
0a
11
20
09
20
08
08
10
05
11
0c
fe
11
11
f7
0b
f9
11
1a
fa
07
0a
fd
0f
11
0f
01
0b
fa
0a
05
f6
f9
fb
10
03
f9
14
0d
f1
f2
f2
f9
fe
f9
fb
f3
0c
09
06
da
33
3b
eb
e2
08
fd
e7
f3
f2
f1
e0
ee
ef
02
e1
f2
d5
ee
d5
33
e8
08
02
24
03
fd
02
e1
08
db
13
ef
22
e6
ec
df
f9
f9
33
f1
c1
0d
03
f7
fd
ee
fd
02
fe
f7
31
ed
ec
2f
db
f1
10
d6
ee
fa
1d
f4
2c
fe
da
0e
2e
c1
00
f9
f0
f9
ef
fb
d2
09
f6
f9
ee
f3
fb
f0
c1
0d
f1
f5
cd
e3
0c
fa
07
fa
05
05
0c
e5
ed
0c
1c
c9
ef
03
fc
e8
0c
d5
f2
2c
3b
df
20
0e
f2
e4
e6
fe
21
bc
fc
bf
fa
19
d3
ef
f3
f5
17
11
d7
c5
0a
37
1d
f3
1b
01
08
0c
24
f8
f0
0b
1e
02
33
f1
14
df
0d
03
f2
dd
14
04
05
0a
12
0d
c7
2e
d9
21
32
13
fb
09
e3
0b
35
fc
ee
ee
fc
10
0f
05
f7
15
c9
fd
ec
d2
4a
f5
f6
1c
17
22
e6
38
e3
0d
2d
f4
db
40
f9
1f
f3
20
ee
f7
16
09
ec
06
00
2b
f8
0f
1a
0c
09
0f
2f
26
0d
11
21
f6
09
e4
10
21
01
09
c3
40
f6
0c
fe
09
03
1f
f2
d0
c8
20
d3
fb
0a
fd
2a
f5
c0
11
fe
03
00
bd
1e
0e
31
f7
d8
ec
fd
b6
d1
f0
ec
ef
00
0a
01
01
12
fd
fd
06
f1
f1
f7
f1
14
0c
e8
00
fd
26
ee
fe
07
06
10
0e
1b
da
16
ec
01
11
ee
0c
04
11
14
f5
06
0b
fb
e1
0b
ff
ec
f0
d2
ff
03
24
e5
15
0c
09
e3
eb
ff
fa
1b
f5
ee
04
ee
1c
09
d9
0e
e1
ff
f3
e7
ec
01
04
0d
e0
e7
d9
fa
f3
0c
f9
f0
e8
0a
ea
db
f0
f3
15
12
e4
f5
fa
0f
f3
f6
08
fc
fd
0d
e8
11
f5
16
e9
12
f8
01
0a
e9
ff
e4
03
fd
03
f0
aa
1c
fe
f6
0e
d9
04
fd
0a
0d
11
0e
06
00
f5
f6
0b
07
0d
01
06
11
ef
f3
02
02
f9
11
fc
f9
00
0c
f9
0f
f5
ed
e1
12
02
f7
09
06
fc
00
ed
15
f6
f8
0a
f1
f7
ef
fe
08
08
ff
0a
04
08
0f
fb
0a
02
0b
0c
fa
1a
06
f7
e5
f8
01
00
ed
1b
06
05
f8
1c
f8
fd
00
ed
fa
02
fb
05
fa
ff
f4
09
0e
fb
05
fb
10
fd
fe
f7
01
e0
ee
fd
fe
0a
f3
ef
f6
f1
fd
f0
f2
f2
ef
fc
f9
0c
ff
0a
07
fe
14
06
09
0e
f5
f3
f3
f5
0f
04
0d
f0
f9
f6
29
13
fd
d5
ed
ff
ff
11
e8
0a
e0
f9
f0
09
e2
f1
f8
05
f1
24
04
f6
fa
26
e2
03
12
e1
fe
dd
24
e2
15
dd
dd
f6
13
f3
18
ff
dc
0a
ff
ef
0d
de
f6
08
f0
d4
1d
01
f4
1d
fc
02
f1
ea
fe
d5
07
ef
02
01
04
0e
0c
f1
02
ef
f0
ec
01
fa
f2
fd
ff
09
07
e3
02
02
e4
f3
00
ef
dd
08
f6
ed
02
fb
f8
12
03
f0
ef
05
20
fa
ef
ef
0f
eb
07
05
02
17
0c
fc
24
0d
0a
e4
e3
fc
17
f6
fa
e6
01
05
fa
00
01
10
0d
0a
f0
f2
ef
ef
10
11
f8
05
05
02
01
04
f8
f3
f7
00
0f
02
0b
f1
f0
00
10
09
f6
05
fa
09
f0
fc
01
0b
f9
02
fe
0a
f1
f6
f6
ef
03
f7
f4
f9
f5
04
fe
ef
0c
f8
ff
04
02
0a
08
f7
fa
04
fc
ff
0f
06
03
ef
0d
08
08
07
f3
03
f8
fe
f4
11
03
0a
fd
07
ef
00
ff
f9
0a
0b
09
ef
ff
01
ff
fe
fc
f1
0e
f4
f6
05
0d
0c
07
f7
f9
fa
f3
fa
01
f1
0d
f6
05
ee
02
f8
f4
10
f8
00
13
11
f7
11
09
03
ec
0e
09
02
0e
0b
03
19
18
02
2b
f7
1a
f9
fd
0b
e4
fc
0d
02
f5
e9
fb
ef
d9
11
1e
ff
f4
18
fd
10
ef
c6
fc
d3
0f
ff
fa
13
fb
ef
ff
fe
11
0d
ca
04
00
0a
f2
fc
08
04
fd
05
08
ef
08
05
39
fc
01
e7
1d
f9
fe
fa
07
f6
03
f5
12
e0
01
1a
f8
1c
0a
f1
08
08
ea
fd
0b
11
0f
0c
de
0b
f9
0f
ed
00
09
0d
21
07
fd
fc
11
1d
0e
10
f9
f7
ef
0a
0c
fe
09
0b
0c
10
e6
f4
f4
f0
f2
e1
0a
0e
22
e8
f4
ef
ee
ed
de
01
06
f0
fd
05
da
f8
05
02
0f
06
fd
0e
f1
02
2b
ef
f1
0f
06
f7
23
0b
1d
fd
03
fa
f7
e8
14
ff
02
0d
0b
1c
f5
f0
f3
31
2c
2f
18
f9
d7
0b
2b
ef
05
ff
fd
16
01
fe
fe
f3
e3
fa
07
ec
ea
0e
f3
1c
16
10
ed
03
dc
f2
1b
07
e1
32
01
0d
f8
09
01
00
10
ed
ec
0e
fb
03
0b
21
14
02
0d
f9
0e
0d
10
f7
09
f2
f5
15
f3
05
08
02
ce
26
f7
f4
0f
ed
fc
f4
fb
e9
f7
12
fb
0c
f4
1b
fc
09
c1
16
f9
34
ee
d4
0b
04
18
10
ec
f3
01
09
fb
10
09
09
f8
ff
04
f4
f1
ef
0e
0d
07
f5
08
f5
f4
f3
f1
f8
0c
07
0d
f7
fc
07
02
01
fa
f1
0c
0d
f6
f3
0d
fb
00
0d
ff
0f
f1
10
f7
07
fb
0f
0d
0f
09
0a
04
f2
f3
f8
f7
f4
0e
f3
f8
09
f3
05
f2
f6
f3
0f
ff
08
01
12
f9
0c
03
09
06
00
08
09
0f
03
f6
f9
f2
fc
0f
fc
fe
f1
01
01
12
f7
f4
fe
ff
ef
02
fe
f7
f9
10
fc
09
11
f5
08
08
11
f1
03
03
08
0c
f3
f9
fb
f9
ee
05
f8
f6
f7
10
0d
f3
1c
f1
e9
19
0e
16
05
0f
f9
ee
0e
08
05
0c
05
28
f9
15
09
1d
f0
20
fc
04
e2
04
0d
fd
04
0e
07
e7
10
e0
1f
13
0a
09
f9
f2
f2
27
f5
f4
f4
fd
1d
fc
fd
ed
18
ff
07
00
dd
3a
f9
fc
0b
0d
21
eb
34
ec
08
23
04
e1
13
03
29
ed
2b
fb
ed
23
f5
f7
05
f1
11
0d
25
fc
0c
f8
25
1c
19
fc
e7
1f
f9
09
db
0c
07
ec
f5
ce
22
06
fb
03
e9
fe
0d
03
ea
cc
23
f4
0c
0e
09
2e
fb
ea
13
f3
fa
04
d9
17
00
1e
ee
e2
04
28
10
d2
c9
ee
fb
f4
f3
01
06
f7
04
f1
f4
d1
02
ed
12
ed
33
e6
03
00
28
e7
fe
f4
e7
09
fb
07
e7
17
ea
ec
00
fd
0b
36
02
f3
0b
01
10
f5
e9
05
f6
06
f1
09
f7
08
33
03
0e
0a
ec
dc
e4
24
09
2e
f2
ed
04
28
ce
fa
c6
0c
cf
02
f2
df
f4
ef
f5
ff
d6
ec
eb
f6
0f
fe
e1
dd
07
f2
f6
c8
04
06
03
fe
e5
0f
f7
20
01
0c
f9
0f
ff
fb
f3
0a
2a
12
e3
26
07
e9
f6
e6
f4
0a
e0
f0
e8
11
fd
f7
0f
d8
0c
24
f4
27
0f
00
fc
ee
f6
f5
f9
0b
0a
fa
07
06
f0
fc
04
fb
04
e8
08
07
ec
f5
11
f0
0e
fe
df
f3
ed
08
e2
23
f7
d2
d1
fa
06
1a
f8
db
03
02
ed
ff
e8
f4
eb
03
f4
16
fc
f6
2d
fa
ea
02
eb
fe
e9
0c
fa
1b
03
f1
09
06
dd
ff
f1
03
f7
fd
0e
fc
f4
ee
00
0e
f7
fc
ee
f0
f2
fd
e3
f9
eb
fb
09
e8
0b
fc
fb
fb
f1
ef
f0
01
d4
0a
01
fa
06
05
e7
07
10
22
ea
10
0a
f2
f5
e9
03
fe
f8
eb
eb
03
13
dd
06
eb
0e
0c
ea
23
12
de
d4
09
f2
d2
ff
f2
fb
f2
f0
ee
07
f0
00
e3
04
fb
3b
e5
ef
08
46
f3
f0
05
ed
ee
e3
38
ef
37
c2
e7
e4
ee
f4
2b
f1
ed
f8
0e
f8
04
e8
02
f4
ef
dc
1c
f3
fc
38
02
01
e8
ec
ed
d5
2e
ec
2b
0c
d0
f8
30
c4
f5
dd
f3
e1
00
01
de
fc
fc
09
04
e2
f7
d6
ea
0e
09
e3
e7
f0
ee
f7
e3
ee
f0
1f
07
d7
f5
f7
16
e9
02
0f
0a
f3
f9
dc
ee
17
3c
e8
2d
fc
05
f7
fa
f8
1d
e3
06
de
0e
03
dc
00
d6
fb
28
fa
36
44
dd
ec
e1
f4
bf
f0
ff
f0
0f
06
08
05
c9
00
e4
f3
13
40
c8
10
09
42
e5
ef
ee
ff
f7
17
2b
cc
19
db
f9
04
0e
01
12
fd
fc
0f
f7
f9
0d
c5
ed
fd
0a
c5
30
04
09
2b
d7
0f
06
e8
c5
d6
3a
ee
14
03
e9
0c
25
f9
11
dd
11
bb
f7
fb
cb
f8
01
0e
11
e7
01
e9
ee
f8
fc
c6
ee
de
0e
03
d8
f7
ff
04
f7
da
02
07
20
12
f2
09
f0
00
0d
de
07
20
17
ea
11
0c
05
ef
ec
f5
39
09
11
0e
0b
16
fa
05
cc
f0
1f
05
f9
b9
f1
02
02
f8
01
fc
f7
f3
10
05
07
0d
09
05
21
05
2f
0c
f1
0b
eb
11
f4
fd
fe
22
0b
0b
02
f8
fb
1a
11
1f
10
eb
d7
0f
29
fb
f0
f9
0f
08
10
ed
0a
00
bd
00
07
ff
08
f6
f8
38
ef
f2
e5
33
fe
0a
09
0c
08
22
f2
f6
00
fd
f8
e4
02
11
0f
e5
f2
ee
e1
ff
22
12
05
f1
28
00
07
07
fd
fb
f0
f8
ff
fc
f1
04
de
1f
0e
f2
ff
ed
12
01
0a
e8
df
0e
ef
f3
02
04
f1
06
dd
2a
09
22
fd
ac
31
00
fc
ee
f5
db
31
ff
d8
cd
d2
f7
d2
f8
02
06
f6
f6
07
11
d6
05
d8
0c
f4
3a
cb
01
f4
49
dd
07
06
03
fc
05
1f
c1
41
f2
fc
0a
05
f7
0f
f3
13
0d
f8
00
f8
cf
11
f7
f6
c6
1d
f1
f1
53
df
f4
f6
f7
d6
d8
1e
e0
36
09
d3
f8
2c
fd
03
c4
fd
c9
f3
08
dd
ee
fc
fd
f2
bd
eb
d4
fe
f3
f7
c0
d3
f3
ea
0d
d6
0f
fd
03
04
c7
fe
00
15
08
06
fe
10
ef
10
d3
f9
43
30
cc
43
fa
fb
0e
d5
06
25
0d
00
0e
06
e8
0a
05
d9
11
14
08
25
ff
eb
e0
03
f0
f6
fd
f2
00
08
05
08
00
dc
ee
ed
03
ef
2c
e4
02
04
37
e5
fd
00
f7
05
e8
31
ec
1a
ec
ec
0d
0a
02
42
f8
f7
f7
f1
ff
02
f5
08
fc
01
ec
29
fe
ee
13
21
01
00
01
f2
f2
21
02
44
f7
f9
f0
2b
e2
00
e0
f5
c6
fd
f0
d4
f7
0b
05
10
e9
e1
de
ec
09
f4
e8
e3
ee
f7
ff
e2
0c
09
2c
02
e4
ed
00
3e
f1
ef
f8
f9
08
0b
eb
fc
1a
18
db
26
ee
fe
02
e1
fb
26
05
0e
f6
07
dd
ec
fc
da
00
1b
db
12
12
ed
df
dd
04
f5
04
fc
fd
d8
f4
0b
fe
d5
ef
e0
f9
e0
21
ee
02
f4
17
f5
fd
f3
f0
f9
e5
0f
ef
1e
d4
e1
de
f3
0a
0d
f0
f7
09
f1
09
01
fb
0e
f6
02
03
09
f8
04
20
fe
03
f2
00
f1
03
1a
f5
28
ed
dc
09
19
c2
fb
ec
11
e8
f6
0a
ef
ff
0c
08
10
f3
f6
f0
da
08
05
01
ef
fa
f2
0c
fd
ed
01
06
0d
e8
04
f6
1f
dd
05
f2
ed
05
04
f4
08
09
2a
ef
1c
f0
f8
fe
f1
01
fc
e8
f0
d9
f3
1b
eb
0a
f8
0b
1d
0a
d5
ef
21
23
2b
ef
1f
fe
03
fe
05
09
fe
05
09
fe
28
f0
f1
ee
1a
03
f3
de
10
02
04
fc
04
ff
e0
09
e0
1e
0b
0b
01
09
dc
f8
14
03
f9
ed
f9
23
0d
0f
e9
1a
df
0a
0e
e4
27
f0
ef
1a
09
01
ea
01
f3
0d
16
0a
e1
04
0a
2d
f3
27
0d
fb
18
f4
f5
09
0b
15
01
16
07
f9
05
24
1d
0d
13
f8
19
ff
0b
d8
16
14
01
0a
df
1b
00
ec
f5
fd
02
28
f1
f8
dd
05
d9
09
05
f0
18
f5
e2
f7
05
fb
fd
e1
f6
f6
19
ef
e7
fc
1f
0b
0a
00
fe
02
f3
ed
04
0d
07
fe
f8
0e
f5
0d
ff
f5
04
1e
ff
f6
0f
1b
16
0e
f4
f2
f2
08
1a
ff
11
f7
f7
db
f6
f2
18
fd
f7
06
0b
0e
0f
f1
fe
06
fd
15
0a
0a
0e
04
f3
05
fa
03
f5
16
0a
eb
08
07
fd
0a
19
dd
fd
ee
f9
ee
0a
f6
0b
f1
05
03
0b
f6
09
f5
ff
0f
ee
06
fd
07
f8
f4
10
02
f7
fd
00
0b
0c
04
0d
fa
f5
08
03
f0
08
ff
ff
16
12
fc
15
08
fa
e6
0b
f9
08
f4
ef
03
0e
01
ec
08
ef
fc
fe
f9
f6
f5
fc
ee
0b
00
04
06
05
08
01
f9
09
0b
10
02
fa
09
ea
1a
18
fe
08
10
0b
0a
04
e5
0c
f4
0a
fa
ee
ff
e8
ee
ee
0c
f6
fc
00
ff
06
eb
f6
02
fe
0e
03
10
0b
f2
05
f3
13
00
fd
f4
15
02
f8
ee
f9
f1
04
05
f7
ec
ed
05
f6
11
f2
0c
ed
f3
f0
0c
fa
15
04
fe
e3
fe
08
0d
fe
09
0d
00
f1
03
0e
f4
f4
0f
f6
07
02
ef
03
09
0b
f8
f5
0a
0a
f7
fb
f6
fa
03
ff
fb
fc
04
05
f1
04
e0
f7
f2
f7
fb
f9
fa
11
08
de
db
0b
0d
f5
11
04
08
02
0d
2b
fe
ed
fd
ff
f3
1b
ff
29
e9
14
f7
f0
e6
10
fe
f2
0d
ef
28
df
11
e5
06
19
1a
16
0d
d4
08
21
0b
ff
f3
03
0c
06
07
ff
fc
e0
f3
04
e2
15
f0
ef
00
fe
07
db
27
ef
ff
1b
f3
ea
10
08
07
0d
05
00
0a
10
ee
ea
07
0a
16
fb
21
16
09
f1
06
23
23
f4
f8
07
07
ed
08
fe
13
08
10
dd
2f
05
02
07
0a
0a
fb
0a
ed
f3
18
f8
f7
ed
15
fa
0f
d1
1e
0a
1a
ff
d8
05
10
16
ff
f1
f2
0a
11
0d
ec
11
ff
09
ef
f4
11
f7
f7
f7
f5
e8
fe
05
0a
ea
16
14
f3
ee
09
ff
f8
07
e5
0a
e1
09
11
14
1b
e6
05
06
09
ff
09
eb
03
0f
f8
f1
10
0d
12
07
05
07
0f
f1
0b
1c
0c
09
e6
01
0c
0d
e2
03
01
ee
fc
f6
d6
09
f8
01
04
ea
eb
db
0d
0b
f0
f8
12
f7
07
e5
0d
02
fe
f4
fa
10
f4
0f
f6
11
04
f3
05
0a
ee
0e
ea
0d
10
03
f5
06
03
0c
ee
ed
fd
e6
01
fa
0a
12
f1
fd
e0
f2
ff
0b
04
e4
05
02
fc
04
e3
14
15
ff
e3
04
0c
f9
06
f9
ff
f1
08
ef
f7
e5
f0
f5
f0
07
2b
d8
ef
f3
17
ec
f1
0b
00
f3
12
14
07
0c
ef
f0
03
01
fb
f5
02
ee
f9
00
0b
06
fd
f5
06
0d
e8
07
f4
f3
1e
11
ec
10
f6
e7
e3
1d
06
01
fc
f3
f6
14
fb
fd
dd
f0
e9
08
f2
dd
ff
fa
06
f9
ee
f1
e5
0d
10
03
01
dd
f5
02
f3
f6
06
ef
ee
05
f0
fb
fc
f7
11
02
f9
f7
f8
ee
02
f1
04
03
f1
07
08
08
f9
f3
06
fd
13
fa
0b
fc
fb
05
06
f2
f6
fd
0e
ef
0d
0b
10
04
f2
0d
0e
fe
f7
fb
11
10
05
06
0d
f2
fe
06
f5
0b
f1
f4
12
06
fc
f6
05
f7
0e
ff
11
03
f6
0b
f3
09
f5
01
05
08
ef
0b
10
02
f0
00
09
f3
f5
0b
05
08
03
05
f8
09
f8
0c
02
f3
ef
0c
00
05
fd
09
01
fa
fd
0d
ef
fc
f2
0b
ee
01
04
0c
f0
00
f0
10
f2
0a
0e
0e
fe
fb
ef
f9
0c
11
0c
02
05
00
09
10
f6
f6
06
ff
02
0d
f6
0d
05
08
02
fa
f4
fd
f1
fb
05
00
0b
06
0b
ff
fd
ef
00
fa
f1
f5
fb
1e
0a
fa
f7
de
f1
e6
f3
eb
08
00
07
fe
ee
e6
06
0e
0b
19
12
d6
f4
fe
18
00
f2
11
04
01
2b
13
e8
20
00
1b
0f
14
07
0a
01
1d
f7
05
f5
ef
e8
fc
f5
12
e0
1b
f8
11
2f
eb
f8
0d
19
05
fb
1e
f8
04
fc
07
f3
0e
02
ec
cf
02
db
04
12
ee
f5
fc
f5
f4
e9
14
e0
17
fa
fe
e2
fe
ea
11
03
f3
ff
06
12
ea
fa
fd
f1
fb
19
0d
fe
03
fb
0b
ec
0f
0f
00
07
fc
f8
09
04
fa
0c
16
08
0f
1a
17
f1
28
02
fe
ff
1b
fd
0e
17
01
ff
fa
01
0d
e9
fc
fe
f3
09
00
09
f7
e8
ed
04
cf
27
fa
11
06
11
ff
01
fa
d3
fc
c6
0e
f2
1f
fb
d5
ec
0c
05
15
f3
d3
0c
f4
f1
01
ff
fc
09
f9
05
17
fe
ff
1d
19
fd
03
d7
fd
f2
12
d0
23
f3
fb
fd
07
d5
02
0d
08
f9
ed
f4
e5
ed
ee
f4
09
00
04
f5
da
f4
04
f3
e1
f9
07
ee
17
0f
ee
20
f1
e5
ff
f4
0a
d0
04
04
fe
ef
ed
fa
fa
1c
15
eb
03
fc
09
e1
ed
fe
0c
e2
10
da
ee
0b
e2
09
f5
ff
09
3e
a1
bf
2b
32
19
05
2a
f5
04
ef
36
ff
ec
00
37
05
3d
fc
27
cd
30
17
fa
cc
32
0f
09
2c
0e
09
c5
24
b2
48
1f
1b
02
05
cc
03
32
ef
f5
ee
11
44
f8
f7
f4
24
b8
01
ed
be
2c
fc
ff
2c
18
42
ae
39
c7
00
22
f5
bd
41
06
31
f4
37
e8
f6
2a
ed
f0
e9
ee
29
0a
2a
19
f3
04
1e
2c
2c
f7
f5
16
f0
0b
fc
11
37
02
f1
b6
20
fa
eb
f3
0e
f9
2d
f7
c8
c6
29
be
f3
0d
13
37
12
c1
2c
f3
20
f0
c0
14
f0
26
07
c4
25
e0
e1
0f
2f
08
fd
0d
fa
f8
02
26
00
f7
ed
34
03
1e
07
20
c7
18
05
ed
d9
22
0d
05
30
02
33
cc
22
e3
16
05
21
f8
06
da
f2
17
0a
fd
f7
01
11
04
0a
f2
16
d6
f3
00
d0
18
04
f2
1a
13
2e
d9
3f
dd
f5
38
fd
da
2e
ef
1f
fe
2d
eb
02
14
05
05
eb
fb
22
07
1b
27
ec
07
04
0d
33
fa
f3
1a
f9
02
e4
00
15
f1
f3
d1
44
0c
fb
08
f7
fc
15
f2
cf
e3
1b
d8
f3
ef
0e
16
0a
df
16
0e
1a
f1
ea
1e
0d
1c
ff
e3
ea
32
19
da
b4
f6
ee
d0
f2
fb
01
fa
f5
f7
03
e5
f9
de
f8
03
3a
d6
0c
f1
52
d7
fd
f7
e7
03
03
4b
e5
28
c4
e9
e8
09
06
18
05
e5
10
09
f2
f8
d3
06
fa
f5
dc
1a
f0
ff
4b
d5
ef
02
ec
ce
d5
31
ef
33
f4
cb
09
2c
e3
f9
c8
ed
da
fd
f7
e3
fe
f6
02
08
de
fe
e4
e6
06
03
ea
d0
d9
f3
eb
d1
09
0a
01
f7
d4
fc
06
1b
e8
f5
0a
fd
fd
f3
d9
00
2b
44
cd
2e
0e
ef
f6
d9
f3
31
05
fd
08
0d
19
e8
fc
cd
f3
0e
13
ef
df
08
02
17
0e
f3
03
02
f2
3a
0d
11
fd
13
f0
28
f3
1e
e6
04
0f
f6
fa
13
11
0b
24
ef
0b
db
f9
e1
32
25
2f
05
fc
d0
01
27
f0
10
fb
0e
2d
ee
fc
ff
f5
dc
f0
07
f5
04
0d
f5
31
15
0e
e6
26
09
03
16
07
f5
31
f1
1b
0a
12
f7
01
2b
ee
eb
05
fc
00
00
14
07
f1
f6
01
26
27
fe
03
07
ff
fa
0d
0a
1d
0e
07
cd
24
fc
fa
0c
0d
f4
eb
0d
e2
ca
0c
ec
f9
04
09
16
ee
e9
0f
fe
20
04
bf
2c
f9
13
00
de
f9
01
f7
ed
e7
f4
f9
f5
f3
f3
07
06
ff
0a
09
04
ef
fe
f5
ec
0e
fe
f8
f7
fa
0d
fa
ff
ed
06
e9
0c
fa
0f
f7
e4
ee
11
f9
fa
fb
e5
f4
ed
f2
f5
ff
f4
f2
03
e9
0f
0c
07
17
14
0b
01
08
f5
ed
09
02
18
f0
ff
f8
1a
f5
fa
fc
f7
ed
fe
ff
ff
06
f3
fb
03
fc
ff
f1
ea
03
eb
fd
f1
fd
05
ff
05
f9
ff
07
e8
06
fc
f7
f0
05
f2
03
08
ee
f8
f0
11
00
0d
f0
10
f6
0e
ef
f7
fb
0b
f5
f1
f9
fd
e6
e0
f8
0b
ef
ff
0f
08
fb
fc
18
06
fd
ff
fc
02
fe
00
f3
ff
06
0a
02
08
f0
f9
00
05
08
f5
18
07
f8
ef
0c
f8
ec
fb
08
00
0f
ea
fa
03
ee
ff
0a
f0
09
0d
f1
0a
00
ee
05
01
03
0a
f3
10
ef
e8
fd
08
e7
fb
0a
0d
f7
0b
0a
ff
fc
f5
04
f2
f9
f1
ff
f7
fd
f5
04
f3
0c
f6
fd
05
0a
0e
0b
f8
03
f0
fb
f6
eb
31
03
0e
fe
ff
01
f2
0d
00
e5
01
fb
ec
0b
ff
f0
f0
08
01
f5
00
05
0d
04
0f
f4
02
ff
fb
00
ef
09
de
09
02
f8
fd
1e
e8
ba
0b
22
f6
02
19
fc
ed
fd
24
09
0a
f4
17
01
23
ef
10
e8
ff
0a
fc
f0
fe
02
f1
13
04
22
e9
ff
e5
2e
1b
11
05
fa
d7
0e
08
fd
f2
fc
00
1f
12
ef
05
11
c6
08
ff
e5
13
0a
fa
09
1a
08
ee
34
00
f5
fc
01
df
2e
fe
1b
fa
ff
fb
ea
0d
0d
ed
01
0a
03
14
1e
08
04
ee
ff
11
14
ee
01
05
08
f8
0a
02
19
10
0e
d7
25
f0
08
ef
ec
fb
0f
12
cf
cf
1b
d6
f5
0f
28
01
02
e3
1c
fc
0e
ee
92
20
03
1d
00
d2
e4
1b
1e
03
05
0d
f0
f9
04
08
02
fd
09
fc
f4
e8
07
f8
f0
e2
0b
07
05
0c
30
09
09
07
f1
05
d0
1c
01
17
09
d9
ee
ff
02
1f
fc
e2
f2
f0
0f
0a
fb
01
02
f6
f5
1e
00
0e
24
0f
ef
07
01
ee
08
06
f8
0d
f1
e8
0c
1b
dc
ed
13
f7
00
ec
03
e7
f7
ed
00
f1
05
09
01
ea
f6
ed
f0
fc
f6
fd
0a
fa
0c
fc
13
03
f1
fb
f4
0a
d6
ed
fa
08
f5
07
ea
f6
02
2a
f7
08
fa
f7
f7
09
0a
05
f1
06
d1
06
0c
cb
0a
e9
f4
01
0c
fa
eb
0f
0f
07
f6
05
f7
ec
f5
f5
0a
04
fc
07
fa
0d
f4
0d
e4
09
f5
09
04
fc
fa
f5
f8
f3
09
02
0c
f8
18
05
17
00
09
e7
12
03
ed
f4
f6
f7
ff
07
f5
04
f8
fe
00
0d
f8
08
f6
0c
13
01
13
f0
0e
f6
10
07
09
f3
13
f9
1a
fc
1b
fe
fe
06
fe
e9
e7
01
ff
15
18
fd
10
f7
19
02
1b
fb
f5
04
10
03
fe
ff
15
00
09
f8
18
eb
f8
fe
fa
0e
12
f0
06
e4
04
04
0d
f5
07
fc
fa
e5
fe
00
06
f6
e1
f8
10
0e
ff
f2
ea
4c
3b
f5
bb
cc
f7
da
f0
03
fe
ce
0b
04
05
da
ef
e7
fe
dc
2f
f0
00
f5
28
f3
ef
0a
d5
f6
ce
3e
cd
3f
e1
c6
e0
ee
f3
37
f5
e0
04
03
05
0a
e8
fe
08
ed
e3
3e
08
f4
51
da
ff
f2
c8
f8
dc
2b
de
35
04
cc
f5
37
cd
07
ee
0e
ce
f5
fe
c3
ff
09
f3
f6
d2
0c
d0
e0
fc
f6
f8
b4
d0
f3
07
db
fc
0c
04
f9
d1
08
f5
2d
df
00
f8
00
f3
ef
e9
f0
14
32
d0
27
0f
fd
ed
de
f5
30
d3
fa
d8
00
11
e7
f4
ef
0a
22
01
07
10
f1
f7
eb
fa
ec
fb
ef
f2
fd
0e
f7
01
01
f6
05
01
fc
06
f0
05
03
f8
15
fe
03
0d
0e
0c
04
f4
06
fb
df
08
f3
fb
01
fd
17
ed
ee
ee
ee
09
f7
04
f8
f2
f9
00
fb
14
f4
fd
01
0c
fd
f9
0e
17
09
0d
ed
fb
f5
fd
fc
e3
fe
04
08
0c
00
0b
f0
f0
f6
f0
05
f0
0a
f3
f6
01
01
f3
fe
f0
0f
0d
f0
02
03
fc
ec
f5
f3
ee
fd
fb
f9
fb
01
f7
f6
05
07
14
05
08
f9
08
05
05
03
f2
08
08
f6
10
18
f1
12
ef
00
f6
16
24
02
e9
fa
08
fb
00
01
03
dc
ee
06
03
f1
0b
e8
f0
d7
12
09
0c
fe
07
f1
12
00
e3
08
df
1d
ea
28
e7
ee
fa
00
0b
32
05
fa
ee
f8
f4
fc
f6
06
f0
f1
da
27
f9
10
3f
09
f0
f7
fa
f5
f0
19
e1
1e
0a
f9
0a
16
e4
ff
fb
f7
eb
f5
07
ed
f4
e3
f8
02
fb
0c
f9
ee
f8
0c
ee
ea
05
ef
fb
e1
10
fc
14
fc
e0
06
f1
13
fd
f7
fd
f7
ec
f5
f3
08
01
1f
ea
fd
f8
01
fc
f6
ec
0c
c9
fb
ea
eb
0b
de
f0
fc
01
20
fe
09
0a
0e
11
10
f3
f3
f1
f2
ed
07
07
06
ec
0a
f9
fb
fc
f0
02
fb
ff
0e
0a
0f
f5
f5
0b
0c
f1
ff
04
10
fc
f1
09
03
f7
f0
0b
0e
09
fe
03
0c
0d
0d
f7
0e
f8
f9
f6
10
f3
f3
07
fa
06
f5
f9
fe
03
f6
07
ee
0d
0f
f3
f8
ff
01
07
01
ff
f3
f4
fe
f8
05
fb
0b
0d
08
f9
ee
0f
04
f3
05
06
0c
f8
09
09
02
f3
0c
ff
f3
f2
fb
ee
02
f5
f5
fd
f1
01
04
05
08
04
f6
0d
f4
fa
f5
0b
10
0c
ff
09
02
fd
fd
f8
f8
14
00
05
fd
f1
03
00
0a
0e
0c
0b
11
f9
03
00
02
0e
10
ee
10
03
0f
f9
f8
12
fc
ff
f4
0c
fb
0f
13
11
fe
f6
01
e8
ff
f3
01
ec
02
08
ee
09
ef
0b
04
0c
eb
17
03
f8
fb
05
03
09
ff
fe
fc
08
12
f7
ec
f4
0f
f3
08
09
fa
f4
f4
16
0e
04
0e
0d
f8
f8
ef
fe
f2
fa
00
fa
f9
12
14
02
f8
fc
fa
fc
07
ea
0f
0c
f2
09
fd
f8
07
ed
f8
ee
f5
0c
07
11
f6
f9
09
fb
00
f7
12
f4
0c
f8
fe
f1
f6
03
00
fb
14
f8
fd
fa
0f
08
13
00
f9
0b
10
0b
fa
ef
07
f1
0d
04
f8
11
11
0d
fb
f0
09
f5
05
01
f2
07
fa
00
f3
fd
ff
13
0f
fc
0b
f6
0a
0e
f4
12
0e
02
fb
01
f3
16
11
04
0e
fe
f5
f3
f4
fd
05
0d
01
09
0d
13
11
ee
f6
ff
07
02
17
ff
fa
10
f3
03
05
05
08
05
08
0a
ef
f4
0a
05
fc
0c
08
02
f6
f9
ff
07
00
03
fd
05
f7
ee
f2
10
f5
0b
07
0d
11
f0
08
08
f0
14
00
0a
06
ff
fe
00
ef
04
13
04
fc
f5
f0
fd
13
10
f5
f5
04
1e
f0
f1
0f
ff
11
00
10
f9
f7
0b
08
f4
f6
05
0f
fd
00
f8
f9
ff
1f
f0
f8
03
1d
05
fd
f6
06
11
ee
03
fb
05
fa
fe
fd
08
10
0c
07
f0
fa
fe
06
0d
ee
ed
f3
0f
00
f9
f7
e8
17
ff
02
f6
08
1a
e8
27
df
f2
0d
03
f4
06
0d
11
0c
0f
03
f5
21
f9
f6
0e
0a
06
04
06
12
0a
f4
05
f6
04
f3
f8
0c
f5
0c
0b
0d
fa
ee
0e
07
0c
01
10
fa
0b
03
fb
f3
ee
fb
fb
f2
fe
0f
f7
12
f1
03
f3
ee
f6
fb
05
07
0b
04
02
f0
0b
e0
ee
1c
36
11
ec
28
0f
0d
fd
ec
f0
f5
0b
06
03
24
f0
e0
dd
11
0d
f3
d9
05
f9
08
ff
05
11
e4
0f
f3
19
f5
16
10
09
f5
ff
0e
0b
0f
08
f3
0a
fc
fc
08
1c
ee
fa
f3
01
30
0c
06
0f
04
1f
f1
03
ef
fe
01
11
08
dc
f4
28
fa
21
0c
06
1b
06
ea
0e
f0
17
15
05
02
f2
0f
f8
0f
23
fe
09
0b
0c
ef
f7
01
18
ed
06
f3
f2
0c
0b
03
fd
08
29
fc
ef
e2
16
eb
01
07
dd
25
03
df
02
f4
e6
e8
ff
f5
10
1c
f1
03
fe
12
07
f9
f4
f3
f8
f2
0d
fc
0a
ee
f2
f1
0e
f0
0c
f6
fe
ed
f9
05
fc
f2
05
f2
05
fd
00
02
f1
0b
0a
fe
f5
f0
03
f5
11
14
f8
fc
0c
00
fd
ee
fa
fd
f2
ff
0c
18
ee
f2
03
f3
e9
0a
f4
f7
06
05
e8
05
08
09
0a
00
e2
01
0b
07
08
0a
fc
f8
0f
f9
f6
f7
ef
0f
11
f5
05
f1
00
f6
10
0b
f5
06
06
ef
03
ea
f5
03
f9
ff
ec
f4
fb
f6
eb
00
0f
0e
03
18
0e
0e
0d
f4
fb
fc
f0
eb
e6
03
dd
08
f8
df
0d
0c
fa
04
fe
26
0f
ee
f0
ff
08
e7
02
01
f5
f3
07
0f
ed
fa
eb
dd
0a
d7
23
0f
f1
fb
12
ed
f8
06
cc
0c
ee
1e
ff
29
f9
cc
f0
f3
ec
27
06
d0
01
0b
f5
0a
e8
f0
fd
fb
f0
17
ee
f2
1f
fb
e7
fa
f1
fb
f5
23
ec
0c
f8
ef
fd
10
d6
00
fa
f9
0a
07
fb
f3
ef
f1
f0
0d
ec
06
ef
ea
02
00
e9
dd
e3
02
fc
f6
00
f1
08
ec
f8
06
06
12
d3
0e
ec
f1
f9
fc
e7
09
21
31
00
0e
01
ea
f4
e6
f6
0e
d9
ee
d9
11
2b
df
f5
de
01
04
e7
1f
0b
f6
f6
08
f4
fe
f9
f3
f0
db
01
fb
f7
ef
f2
db
f3
d9
00
ef
ed
0f
17
e8
04
fc
da
07
e7
f8
e3
1e
fd
f9
ed
0c
ed
06
fe
d1
0d
fa
fa
ec
ea
f7
0a
f0
f9
16
0b
ed
26
e6
eb
f7
e7
f8
f1
14
dd
09
08
ff
f1
ff
f6
f1
06
04
00
07
fc
f8
f1
ed
f1
05
ee
e7
f4
e5
f1
ff
eb
05
f1
0d
f1
fb
f9
fb
ff
00
e0
f3
ed
07
d8
02
f2
f7
f8
02
ed
f0
fe
1f
f8
10
ed
f0
f6
ef
fb
13
e3
fd
ee
f6
12
ed
0d
e9
f6
04
03
ee
fe
02
ff
11
06
1c
01
0e
0e
fd
f4
f9
0c
05
00
0e
0f
e1
12
f7
00
ff
0e
08
f2
0d
0c
f4
f4
10
fb
f9
fc
f3
f8
18
f3
1c
fe
0a
04
f6
00
f2
fd
f3
fd
ff
09
03
10
f1
f1
f1
15
11
e5
ea
09
fe
f8
ff
10
fd
f7
0a
22
02
14
f7
03
09
f6
02
ed
02
f7
10
12
2a
f9
ff
01
09
04
0d
0b
04
0b
17
00
01
09
03
04
fb
f3
04
e6
fb
05
03
f9
08
13
03
08
00
05
01
f9
f6
f7
14
07
0d
f8
f3
e8
02
00
f9
f7
03
f0
f5
e7
12
0d
f6
fe
fc
f9
fe
08
0f
fe
fd
ee
ff
05
00
eb
f6
ef
ea
f6
10
f8
09
05
fa
00
01
eb
fe
fc
05
04
10
04
ec
f3
03
0b
f5
0c
ef
02
ef
00
03
fb
f2
f9
f2
f5
f4
f3
f3
0d
f4
01
fc
f4
f6
f5
f9
07
13
0d
0e
fe
fd
ea
fd
fe
0a
ee
f5
fc
f5
02
f2
fb
ff
ed
10
fb
fd
ff
0b
04
fb
f8
00
fe
f9
f6
fa
f1
f0
05
f1
04
f9
fe
f3
0a
f6
fe
ef
fa
f5
f8
fe
09
0f
07
f3
03
f2
f7
02
e3
f9
e0
05
0f
fb
03
08
fa
0d
15
d6
e6
22
2b
1e
fd
2b
f2
07
f6
f5
05
ee
f5
0c
0a
1a
06
0f
f0
14
fb
fb
e2
16
02
fd
0f
0a
0a
e7
15
f5
0a
f2
12
fa
f9
f5
f6
fe
f3
f5
fe
ff
0f
00
f6
0a
1a
d1
fe
f6
f8
0f
ec
0a
14
0a
1e
e1
15
e6
0c
1c
f8
e6
0b
06
19
f5
06
ff
f5
13
01
fe
eb
f6
26
00
20
f9
fb
09
13
1b
1e
02
05
00
05
f4
12
f7
0f
0d
0c
df
fe
f8
08
05
fb
01
22
fc
da
d2
07
eb
03
ec
0b
0d
01
db
15
08
02
f9
d0
fb
02
15
05
de
05
00
c0
f7
04
fb
f6
17
05
f7
ef
ed
0b
f8
f5
0c
0a
12
0b
e1
e6
22
f8
f8
e9
fa
f8
09
21
fc
f5
fb
06
00
07
f1
06
00
0d
ec
f8
03
08
ef
03
f9
fb
08
0c
0a
29
fb
fb
fc
f5
07
f5
f9
1f
0f
f7
fd
f1
10
05
fe
f6
00
04
0b
10
02
18
ee
f9
fe
08
f4
f2
fa
10
0c
09
fa
0f
01
1d
10
25
0f
fc
1f
00
01
09
06
fa
f7
0a
ef
e7
07
00
06
03
f4
31
f6
00
ee
fa
e1
00
00
e8
15
10
e5
ff
fb
1d
f7
e2
f1
0e
13
08
11
0d
d9
d2
02
12
0d
f9
1d
01
f8
ff
07
0c
f9
09
0e
07
0a
0b
0b
e5
15
15
eb
f2
1e
0b
09
1c
00
03
e2
16
e3
06
0e
16
10
07
e0
10
13
fc
fa
0f
f0
10
09
ff
0f
0b
e6
f0
f5
f7
fb
f0
01
0a
00
1d
ef
f8
05
0d
08
11
03
15
f1
07
fb
07
07
08
0d
02
06
fa
10
1d
fe
10
14
0e
10
10
14
0a
00
f0
06
06
f6
1c
fa
1b
f3
f7
f2
fa
fa
0a
01
f9
f7
04
f9
e7
df
1d
f0
07
f8
eb
16
f0
f7
f9
f4
f7
f6
d9
f9
f7
04
f8
ee
f7
e4
f1
ff
0f
0b
06
03
08
f2
fd
f5
04
f1
f4
ff
00
15
04
f3
ff
1e
0b
fa
f8
f9
07
0a
03
ed
f7
01
07
ee
0d
e6
f0
05
03
09
f1
03
05
fa
fb
0e
f8
03
f7
ff
13
09
00
f2
f4
1f
f1
ed
fa
02
05
06
01
fb
0b
fe
05
08
fa
00
09
04
08
06
f7
f3
08
e8
03
02
0b
fb
11
ed
09
fe
08
fd
0e
10
f1
01
f4
f2
f0
e8
13
05
f8
05
0d
0d
0d
0c
f5
f8
09
fa
fe
e6
0a
ea
f7
ee
05
11
01
0a
f0
fc
f2
fc
e3
06
ed
01
04
ef
13
de
b9
18
37
10
f1
1f
f2
f7
08
02
ec
f8
ef
2f
0b
01
f3
f9
e1
20
f2
f2
dc
31
ed
0c
23
fd
00
f6
10
ee
0a
02
00
fa
01
ea
06
f6
02
10
f5
f1
22
fb
eb
f4
24
e2
f9
05
d4
06
fa
02
21
23
28
df
05
e0
f0
0a
06
e2
fc
f1
2e
fc
19
0b
f1
0c
f8
ff
f4
fa
18
fe
10
f5
fd
f9
0a
24
28
f8
ff
16
fb
0d
21
f5
0c
06
ff
e8
ef
0f
fc
f5
03
05
13
f2
e0
d9
28
d3
f7
ed
f4
27
f7
ce
0b
f7
fe
f0
f0
f6
04
15
09
e1
f7
f0
09
10
1c
09
f9
14
f9
07
fc
06
06
fa
f1
18
fd
01
04
f5
f5
09
f3
f2
ef
17
0d
ef
ff
f6
fb
df
09
fa
12
17
01
04
0a
dc
ef
05
05
10
05
ed
03
fd
00
04
03
fe
f8
f3
e7
10
fa
ff
e9
07
1a
0a
f8
dc
ef
ff
05
e9
03
f4
0e
f6
07
03
05
07
0d
f4
0a
05
17
fb
19
00
05
f8
0f
ef
15
0b
eb
0c
0a
03
f7
fc
21
f5
f7
e5
f1
ef
f0
fa
f2
fb
0a
ef
e3
ec
0f
eb
0c
ed
f8
ff
0b
ed
04
eb
e3
eb
f2
0c
0d
26
f7
09
f7
f0
0f
0a
07
11
07
0e
0d
0b
f0
03
08
09
f0
0c
0c
00
f1
f5
00
13
0c
f5
f5
06
0a
09
f5
03
15
eb
f6
0d
03
04
10
f6
f3
ee
09
03
f7
fa
06
fd
15
0e
f9
f0
08
f3
0a
f7
fa
03
ff
fd
18
f7
03
f7
07
ea
0b
0e
01
f8
f3
eb
0c
f8
08
01
08
0f
ef
fc
09
01
14
0f
12
f3
fd
0e
07
08
1b
ff
05
12
05
f5
f0
04
10
fd
0c
f6
0f
09
f9
03
08
04
1c
ee
ff
09
02
fe
f8
01
fc
fc
09
e7
0f
0d
fb
f0
06
fb
ee
0d
03
ef
09
06
12
ef
f3
ff
f0
05
03
ee
06
fc
05
f5
f5
fa
06
f7
10
f9
03
0d
ef
f2
03
03
09
0e
fb
ed
f4
03
f1
03
f0
f2
e9
02
01
04
0a
eb
ef
06
f4
ee
fb
08
f0
08
f5
02
06
06
f8
0f
01
f9
f2
f6
03
18
0e
ff
07
ee
07
01
02
01
ff
ed
0c
00
f1
07
f7
0e
00
0f
00
03
f2
f5
fa
0a
fe
ea
03
06
f1
01
07
f8
f2
ef
ee
04
fb
1b
e3
0b
f0
02
0a
f8
0b
f4
0c
00
08
06
01
0e
fa
06
f9
0c
eb
06
ea
ec
02
e8
0b
0b
0c
03
fa
08
0c
f6
e0
f4
02
f1
f4
04
fe
ed
04
fb
0c
e4
fb
ef
05
fd
18
0c
0d
ed
15
e8
0e
f8
fd
01
eb
0a
0c
21
06
f3
16
f5
f9
09
12
06
f7
fc
f2
f9
eb
0f
f9
0c
04
01
f6
fb
11
00
ee
0b
f4
0a
ec
fa
ee
12
05
05
07
0b
05
fc
0a
ef
ed
06
0d
f1
f3
e8
fd
f4
01
f4
f8
04
05
f0
04
fe
f6
04
0c
fe
f7
f5
fb
03
fb
0b
f4
ff
03
f1
f8
fb
fd
f0
fb
10
03
02
f4
0e
f4
02
fc
07
0a
f1
02
ff
f5
f8
fc
eb
02
ec
f3
01
15
ea
e4
1a
16
20
0b
05
0a
fa
01
02
f7
e5
f0
06
f2
0c
fe
fc
f1
20
09
0c
fb
18
09
f2
05
ea
f5
f1
1c
e5
00
03
11
01
ef
e8
fc
f5
ff
ef
0f
0b
20
f9
f9
07
0f
eb
fd
eb
00
10
05
08
03
00
21
fa
08
ec
f7
20
f1
06
00
0b
2a
fc
19
fc
06
17
f9
0c
e7
02
08
fb
21
f5
07
02
1c
1e
07
f2
f6
19
10
01
13
03
1c
0f
f7
00
fb
00
06
fd
04
00
1d
f6
04
ee
16
e3
f5
02
f6
06
f1
f8
fc
fc
fe
e7
fe
0b
01
01
f9
f5
14
f9
ee
fb
14
08
0a
01
f5
fb
f4
08
ed
0e
00
13
f4
1a
09
fd
00
08
f8
03
09
09
0b
0a
f8
f3
08
f5
fa
ea
0e
0d
04
f0
0a
fe
f4
f9
ea
f3
fd
f0
14
f3
fd
f9
02
f1
09
fd
ed
04
02
0a
ff
11
0b
fc
03
fd
ee
00
07
fa
fc
09
00
ee
01
ff
09
03
0a
fc
fb
f9
05
05
0e
05
ed
fd
ff
fd
09
f1
ea
1c
02
f5
fe
eb
fe
04
02
ed
0d
03
f4
fc
f1
ff
1e
fe
f1
ef
0a
f8
06
04
ee
1c
0a
03
f7
ee
01
ec
03
fd
fc
1c
fb
ea
0b
ff
ee
01
29
f1
07
0a
fa
06
f8
fe
ee
fa
10
1a
01
fe
f0
e5
ed
14
0b
0a
ec
1e
0e
f7
f4
f7
de
ff
0d
f3
ed
e9
f1
12
fb
0b
ef
e6
f3
04
06
01
00
ed
0e
00
02
f2
0c
f7
fe
e3
f4
f7
18
1a
17
f6
fa
f7
fb
03
0b
f0
18
fa
1a
f1
19
08
f1
12
0b
f8
f9
f3
03
0a
01
00
fa
0a
12
12
03
ef
f1
27
f5
09
19
fd
fb
04
0c
f4
de
ff
0b
f5
fb
f4
fe
ee
eb
f1
15
f1
04
0a
f1
17
f5
f7
fa
eb
00
e2
ef
07
01
03
0d
fa
0e
00
f3
08
0d
ff
f5
f4
02
f5
f1
0c
05
0e
f7
07
f6
f1
0e
fa
f0
0e
ee
fe
06
12
03
06
05
f6
f8
03
fd
ff
03
11
fa
fa
10
0a
f0
0b
06
ff
f1
07
f7
00
f9
0b
f2
04
f3
07
01
0a
00
0c
0c
02
fd
f0
08
fb
08
04
0c
03
f4
00
00
0a
f2
f2
fb
0d
ee
0c
0b
00
08
f2
fb
fd
f6
09
f2
fd
04
0a
f8
09
09
01
02
f8
12
f4
0f
0b
ee
ef
07
f0
01
fe
11
0d
f7
09
fa
03
f8
f0
08
fc
04
f4
08
fe
08
08
f8
10
fc
ef
03
03
09
ee
ec
19
22
1b
f8
11
ef
ef
0a
09
04
f3
08
0d
ee
01
07
de
f7
1c
08
00
e8
0a
f8
f3
f6
00
e8
fc
0c
de
0c
f7
07
eb
0c
e0
03
eb
09
f0
03
f2
0c
f2
02
00
19
ea
0c
0f
e1
15
f4
07
05
0e
1a
f2
10
e7
06
07
04
f7
ee
e9
2f
f4
16
eb
fa
08
f4
eb
01
08
29
14
08
e9
0f
09
03
11
01
02
ed
21
10
f8
f7
0d
ff
0f
0a
f4
04
0a
04
ef
fe
ed
10
09
f0
f0
f7
f7
0d
f5
ea
0e
f9
dd
ea
fe
d4
04
f8
eb
f6
07
03
00
11
f9
fd
06
1a
18
01
06
ee
fe
02
1f
0b
03
fa
14
f4
1b
10
fd
06
06
f4
f7
14
13
f6
fa
f4
f8
06
09
19
f4
f8
fb
04
ff
f4
e6
03
02
12
f0
0b
ee
16
0f
f1
0d
fd
08
11
f0
ed
f1
0d
08
09
fa
1a
07
fc
0a
f9
16
fa
f9
01
f7
f6
01
18
f5
f6
19
0e
f1
11
f8
13
0d
09
1a
f5
03
02
02
18
ef
07
18
fa
f6
fd
f4
12
f9
09
f9
f7
f9
f0
fd
02
f4
06
01
03
e6
0d
fe
f1
0a
f3
fb
ff
08
f9
f8
f7
fb
02
14
00
08
fb
eb
f0
10
22
f5
f2
ed
fe
fa
f5
07
ef
d3
fe
01
08
e5
fa
e0
0e
c8
17
f2
f3
06
10
f3
02
f4
d4
fc
d9
0c
e7
16
e4
dd
f8
06
fe
23
f8
dd
fb
f5
f5
f5
09
f7
ee
0d
03
16
f8
fd
2a
d1
07
f0
01
fd
ef
15
f0
08
00
fb
fb
2b
c3
ee
fa
ef
f1
02
0a
f3
ff
eb
0b
04
ed
08
e2
d6
03
f5
ef
ef
06
09
02
f0
f3
ff
05
f1
fc
0a
f6
11
cd
0f
fd
fa
fe
01
fa
ff
0d
21
e9
12
08
04
fb
e9
0c
24
d9
f0
d4
0b
02
ed
fc
dd
fc
22
fa
ec
f3
fb
1f
0c
f2
1c
f0
01
f5
09
f2
fd
ec
0f
f7
0a
f8
ff
f5
12
07
f3
f2
06
00
f3
0e
f6
e9
e9
18
01
1c
f6
f3
0d
fa
04
02
e9
0a
01
f9
0d
0f
fe
f0
03
10
db
09
0c
f3
1a
fa
01
fe
06
05
f7
fc
f9
f8
14
f9
f8
04
00
0a
fc
15
fc
ef
13
fa
e8
00
ff
11
0e
fc
ff
0c
05
f9
0f
15
0c
06
09
f6
f2
f3
fa
05
fe
02
02
e6
08
fc
0b
08
04
17
fe
fc
fc
11
e8
01
05
e7
04
f3
f8
0e
fd
e7
fa
ee
05
0a
fc
02
f6
0f
09
ee
08
fd
fc
04
00
07
0d
f0
f7
f3
07
01
f5
f5
f0
0b
f9
29
ff
01
0e
11
07
04
02
ec
0c
ed
fb
0b
08
df
02
f6
10
f2
ff
11
f2
00
05
ed
00
fc
fc
fc
07
09
ec
f8
ec
22
e6
fc
f5
eb
ff
dd
16
d5
12
05
f0
f1
09
fc
fc
f2
f2
fb
ff
08
fb
fe
ef
f5
10
08
f9
ff
e2
fe
f7
eb
f0
e8
09
f0
08
f6
00
1c
00
fa
04
09
1b
04
06
09
fb
fa
08
00
09
16
f5
e8
f9
02
ee
f3
0a
0b
07
ff
f2
0b
0d
e8
f8
fb
06
ef
f6
06
f4
fc
0d
0c
1e
04
fd
09
0d
0e
04
04
ee
f2
f1
fa
f8
10
f9
06
01
f0
fa
10
16
00
06
fd
06
ef
03
03
00
04
0f
01
f7
f7
20
00
ff
07
f6
fe
f9
09
f6
0e
01
10
0e
09
f0
f4
f3
08
04
f6
ef
10
15
fc
05
ff
0e
ef
f8
f6
f5
f9
fd
fa
f0
0c
02
fe
ed
ef
fb
12
0e
0b
e8
ef
0d
0e
00
ff
04
fd
12
10
fb
f0
0f
fa
08
fb
1a
00
ef
0b
f7
03
0b
f0
ef
fd
fb
00
fc
f2
fc
00
03
fa
06
fa
f8
d6
06
00
f4
f7
fe
ff
03
e3
13
1e
09
f2
0e
fe
02
f4
fe
f7
e8
f8
f3
0e
f4
02
f0
0c
e8
0f
f5
fb
07
02
e8
fc
0b
e8
06
d5
09
fd
15
f9
e5
fd
04
04
22
03
e9
05
f1
06
ff
fd
ff
0e
f7
f1
0c
0c
ff
29
0e
07
00
e0
ea
fd
1a
ec
ff
ff
f0
fb
01
f8
00
fa
f5
eb
f3
06
e5
fa
ec
11
f2
04
0c
ff
ea
f8
04
fb
ea
0d
f2
06
01
00
f9
f7
06
e8
fb
f3
05
ec
06
02
06
ea
10
03
04
05
05
ea
17
f2
03
f3
09
0d
15
d7
f5
e9
e4
fe
fc
ee
06
09
1d
f3
0a
f0
f3
0f
00
06
f2
f2
fd
03
ef
fd
09
fb
08
06
10
ff
11
0f
f4
f2
f4
ff
fd
03
ef
10
fe
06
fc
12
10
0f
0a
11
fc
f0
07
f2
ff
08
10
f6
fc
f0
fb
f9
f4
05
0e
06
f2
fc
10
0d
f1
fe
08
f5
ef
08
10
11
04
fd
f6
0a
02
04
0d
f9
fa
08
00
f0
f2
02
fc
f8
0d
f4
ff
fd
04
f3
fd
12
0d
f2
f5
02
06
f8
05
03
01
02
0b
f1
f1
0e
0e
02
fa
0a
f1
fc
f3
10
f6
f4
06
0a
03
f3
f1
09
f5
f5
08
f1
0b
f8
00
fc
12
fb
e8
fd
11
f9
23
f6
0c
f1
f7
f9
fa
0b
f6
ef
12
fd
01
ef
fa
13
19
0c
00
e9
f7
10
04
e1
f8
f0
ff
1f
00
12
e3
f7
f4
0e
f8
07
de
f0
f1
05
f0
fc
f5
f3
e9
1a
10
f5
eb
1b
1d
f8
f2
f7
fa
17
16
fa
e2
0d
09
01
f1
05
e9
28
0c
09
ff
f5
0a
0b
fe
f8
00
01
0f
13
e8
fc
fa
0c
ec
14
fe
fd
16
f2
fd
03
07
1d
0d
0e
f9
f0
f8
f7
f0
01
ef
0f
05
fc
ed
13
ef
08
f5
e7
fe
07
f9
f2
0b
e6
e7
03
ff
ef
12
00
f4
1d
dd
c9
2d
37
02
0f
20
0f
f0
f3
0b
f1
0a
10
0d
ff
3b
04
13
f5
19
02
f8
d4
42
12
fb
35
fe
1a
f0
06
e4
16
0d
2d
03
fd
d3
09
1f
fb
f6
fd
fd
26
f2
fc
11
2d
dd
f3
04
d4
06
ec
f2
10
21
15
c5
21
d8
00
1a
f6
d3
23
f5
15
02
20
fb
11
12
ff
01
07
fa
20
15
20
2b
f9
fa
22
24
21
0f
f7
36
05
11
f9
0d
0d
05
00
e0
19
fe
02
11
05
11
16
fa
d1
c8
27
dc
f9
0e
18
27
0b
e0
15
f2
15
fd
ea
f5
09
23
0b
e9
07
fd
0f
11
05
0a
06
09
fc
02
0a
fb
0e
f6
f8
f8
0a
00
fa
fe
0a
03
0d
ee
0a
fd
fb
f8
02
0e
fb
f5
f9
00
02
00
11
06
11
0a
07
f7
05
00
f3
0c
01
0a
f1
f5
0c
0e
0c
03
0d
fd
10
0d
f9
06
f3
f8
0a
f4
f7
f9
fc
f2
0a
0b
0e
f6
08
f1
f4
fc
f2
ef
fb
00
ef
fe
01
ff
ef
ff
f0
ff
04
ff
02
0c
f9
f0
05
0a
f0
07
02
f2
f0
01
0d
ff
f2
fb
0b
f3
f7
ef
f1
06
fe
fc
10
00
00
08
fe
f3
f0
0f
01
f3
f4
fa
0d
ff
17
f1
eb
01
20
0a
08
00
fe
07
ee
17
08
07
05
15
0e
02
09
f2
ee
08
f7
ff
e1
0a
ec
f8
04
05
fe
e2
0a
e9
04
0a
fc
05
0a
fa
f3
1f
03
0d
0d
0c
08
10
00
0b
ff
00
ec
ef
e1
10
e8
04
f4
07
05
f9
0d
f3
ec
0b
fa
e2
1e
06
20
00
0f
f3
02
1a
fb
e8
f1
fd
1f
17
11
0b
fd
03
15
00
14
f9
ef
04
00
09
e1
eb
07
f4
03
f5
09
05
0e
04
01
f7
13
00
e0
ee
06
e6
00
fe
12
17
f5
02
1a
f9
06
02
f9
03
ed
09
0f
fb
dc
26
26
e6
03
ee
e9
eb
f5
fa
04
e5
06
03
f8
e3
fa
f6
0f
d4
f7
f0
0b
0c
03
fd
f4
fa
ee
0d
ef
03
f2
00
f2
f3
f6
f2
f8
18
04
e2
fc
f6
0a
f0
f6
f3
ef
09
15
16
f0
05
14
05
0d
07
f6
0d
ea
1b
f5
16
f7
f6
f3
1e
e8
fb
0c
f7
07
05
f9
d5
0c
f0
fe
f8
ec
fa
01
df
06
0c
f2
e7
fc
fb
01
f4
07
0b
18
11
ef
0b
f8
2b
e5
ff
fa
fc
01
f1
ec
0f
18
11
f1
11
f2
0f
d6
f6
03
ff
e5
05
fd
0d
20
e9
03
fd
09
2e
f1
ff
1d
ff
f3
eb
fb
f1
0a
08
fd
f9
00
f9
f8
ea
08
06
03
ea
10
10
01
0f
ff
12
ed
f5
e2
02
f3
0e
0b
05
ee
e0
dd
f5
f8
10
ed
e4
01
f0
f0
0d
02
fe
0d
f8
fd
10
0e
09
12
06
00
fb
f4
ec
f2
02
e3
08
f9
fe
07
0b
f0
09
ec
ff
03
01
f2
05
04
03
e8
07
ee
06
02
e8
f4
00
07
f1
07
09
08
f5
01
ee
07
01
f5
0d
f4
19
c5
0f
ef
ee
09
fd
fc
f5
f8
1c
ef
11
fa
09
fc
02
eb
03
e0
0c
d4
fb
09
f0
f5
06
f9
12
f1
34
37
f5
de
e0
08
df
07
01
0a
f8
00
f2
f8
db
f9
eb
01
e0
2d
e6
eb
08
35
ee
00
f8
fc
0b
de
27
e0
21
ea
eb
f9
02
01
2a
fe
d9
f0
fd
ff
08
f9
03
03
05
e2
19
ec
fb
4c
f1
f4
06
ed
f4
e1
1d
e4
28
ec
eb
0f
35
d4
f3
f3
f4
e9
ec
06
d9
ee
f3
f6
ff
e5
fc
ef
e8
fb
09
e1
ea
03
0d
fe
da
ee
03
0f
fa
e9
08
f8
17
cf
fa
f4
f6
fd
ff
f3
03
1c
2a
e9
10
0f
f6
f0
f1
f0
08
e2
08
d1
0a
11
03
0f
f1
01
1f
b7
4c
0a
d3
b9
cd
eb
c0
fb
0d
03
d5
f1
0b
00
bf
ee
d9
03
ef
33
d8
f8
fb
42
d2
0b
f5
fb
ff
fe
4e
b4
63
cf
ec
fa
0f
06
45
f5
fe
fa
0f
f6
f2
d8
f8
f4
f7
c5
1f
f3
08
42
c4
fd
fe
e5
be
d4
1e
ef
48
0c
c2
04
29
eb
0c
c7
0e
cc
0e
ff
bd
04
06
f0
0a
d5
d3
c4
0b
fe
07
c4
dc
d0
06
10
c5
f8
03
13
fe
c0
0e
f4
4d
e4
f0
0f
09
ec
0c
de
f4
2b
4d
da
55
f0
0e
ed
c5
06
15
da
0a
18
05
10
f2
0b
d8
06
41
20
f4
e1
09
0f
0a
04
19
f9
05
10
20
0b
00
03
09
02
0c
fe
0f
f3
f4
f8
ee
07
0d
02
f2
11
f1
08
e0
0a
00
19
03
23
12
fe
f7
fd
1a
00
06
fd
f1
0e
0f
f1
ef
1b
dd
ff
11
04
22
f3
fd
2d
28
12
fa
0e
09
f3
10
f4
f4
22
f5
1e
10
fd
f6
f8
20
06
09
07
04
01
08
1a
12
ff
0c
12
05
1f
0c
11
0d
f7
ef
fa
01
08
f6
00
dc
2d
0b
f8
fc
ea
09
17
04
fa
e9
0e
e9
fd
01
03
20
06
f7
1f
fb
29
eb
ee
0d
f8
0d
fa
dd
e9
1c
e9
ff
fe
16
fa
f3
07
f5
fc
df
06
fd
03
ef
f8
f7
03
fd
08
03
f4
fe
14
fe
12
fe
f3
07
04
fc
f5
07
fe
ff
0e
fb
09
f2
0e
ef
06
f5
fd
06
00
01
0b
f1
f9
e8
0c
0d
20
02
f4
05
ed
fe
fc
f7
f5
05
03
03
fb
fb
f0
02
05
f2
f8
f7
f3
01
0e
e2
f1
04
f3
0e
ee
ea
ef
f5
02
f1
17
02
0e
04
0b
05
eb
00
f6
06
04
08
16
12
02
f3
f5
0c
04
0e
ed
f7
10
f5
05
00
f5
1c
04
f2
fd
00
f4
01
e0
ff
04
06
0c
07
ef
32
f9
02
f6
11
07
e1
08
09
f4
e7
0e
f5
eb
e5
08
fb
f0
f9
04
f2
04
eb
2e
e5
0f
0b
05
08
f9
0b
eb
09
eb
f3
fb
f8
07
06
10
0a
0a
0b
0d
04
f2
0f
f6
f0
f4
07
07
03
3b
0f
f3
01
fe
dd
ea
1b
eb
25
0f
d0
08
f3
ef
f5
e2
04
d4
f8
f6
ce
01
fd
0a
0d
e0
07
f8
f4
0b
fb
e8
ef
08
f8
0e
ea
00
f2
1a
f2
ec
f4
07
1a
de
02
0f
fd
fe
fd
e7
ed
12
22
f9
2a
10
0d
0f
0f
f5
13
08
f6
fa
12
02
00
08
01
0d
02
fc
0b
13
ea
ef
eb
f4
ef
00
f7
10
03
f4
f2
f5
e7
f8
ee
03
ff
15
fd
00
f7
0e
02
0b
ff
fb
ef
ee
12
e7
0e
e8
fc
e8
07
fa
19
07
f2
fc
ed
11
f5
ef
06
f7
f7
f0
0f
08
ff
11
00
06
05
eb
f9
ee
fc
fc
0e
ed
f0
eb
03
dd
08
0d
04
00
03
05
fb
08
02
e7
f7
ee
02
03
ea
fa
f7
05
f4
e9
f5
ef
04
f3
f3
08
f2
f2
f2
f5
16
ef
fc
04
f8
fa
04
ed
05
05
05
f5
10
0a
f3
eb
fc
f2
fd
ec
f4
e8
ec
08
f7
fc
eb
f7
10
12
f2
00
03
20
24
07
19
03
05
fc
f5
10
fe
fc
0f
08
14
ff
0d
ea
15
08
fa
ea
1b
05
f9
02
0c
00
e9
ff
ee
0d
ed
fd
fa
0b
e4
10
ff
06
06
f8
fe
1b
fb
05
f2
0f
00
06
08
d9
0f
eb
0d
06
1c
16
02
06
d6
0a
11
f6
f4
11
e6
14
0b
1b
fd
0c
1b
ed
0c
f9
00
26
0c
19
f9
fe
f8
fe
fd
08
f0
f2
03
fe
ff
f1
03
16
f4
fe
eb
13
06
f4
ff
fe
09
17
0e
f0
e3
11
e5
f9
f9
fc
23
07
f1
1a
0a
fe
f5
ec
ef
ef
0a
05
00
0c
02
0f
0c
09
07
10
f8
ec
01
f9
f6
f2
f2
07
18
06
f4
09
05
02
00
ee
01
12
10
08
ee
ff
f8
0a
10
01
03
0c
18
ec
03
01
0f
08
fe
02
ed
f4
f0
fd
0e
ef
f6
13
05
0c
07
16
12
07
06
f9
fa
fa
f5
05
0c
06
fd
0a
12
f2
f4
fa
f0
f2
0c
ed
f4
f8
f8
fc
0b
00
ff
f0
07
0d
f3
f8
02
eb
08
f2
e9
03
f7
f7
06
f7
0d
09
1b
02
0a
0e
ed
f0
f8
f2
fd
11
0e
ff
fc
f5
fb
f3
ff
f8
02
fa
11
f0
fc
ff
1d
fe
0b
fe
10
f7
0c
0f
0b
10
f5
ff
11
0e
ff
07
f9
f6
fd
f2
08
ff
f3
02
f7
05
0e
fe
05
11
02
f3
f9
fa
06
f3
f3
f5
0f
f3
dd
0e
ed
0a
05
f4
f5
0a
10
02
06
fd
ff
0a
f7
f1
fd
f7
fe
16
f7
02
0f
fd
0f
03
01
e8
02
12
09
fc
15
df
07
05
0d
fb
0b
0a
0b
f7
f7
fa
fb
12
ea
f9
e7
0c
01
04
e8
16
07
ec
07
00
ec
0e
f9
0d
f5
00
ec
f1
00
f5
f2
02
0f
08
00
f7
0b
00
00
10
0a
f0
f6
fc
06
f5
ee
ee
f4
0b
f0
fa
f1
f2
11
10
ed
fc
fa
07
fe
04
07
07
f1
f3
00
f2
0c
f7
0a
fd
14
f9
12
15
0c
03
08
f2
0b
10
fc
04
0c
03
fb
f7
0c
02
f4
13
fa
01
04
02
23
fd
06
f9
fc
05
fa
0a
f7
08
f6
02
0a
14
ee
f9
05
07
03
01
f4
12
fd
fb
07
01
f1
13
ed
0c
fd
0b
03
07
06
fa
02
f0
fa
fd
ed
0e
04
05
f7
f6
19
f3
fa
09
f4
04
ff
0a
fa
0d
07
04
fb
01
0e
f3
11
f0
06
00
08
e4
14
0a
f4
07
04
0e
fc
0d
e8
10
ec
05
f1
f0
08
06
ef
fa
ea
ee
09
18
ff
fe
0e
09
f6
02
ec
fa
e5
f0
02
f2
e7
f6
f4
0a
ca
20
ea
f8
f7
11
e9
05
06
d8
ed
e4
17
f9
32
fe
e3
fe
0b
0e
20
ff
e2
f2
02
f7
02
e3
ff
fa
f1
f4
25
0d
f9
2c
01
03
06
e9
ef
f2
14
de
12
06
fa
f9
04
cf
0f
0c
f0
f5
03
f5
ec
07
f7
f5
06
f8
12
03
d0
fb
01
01
d9
04
07
ef
ee
09
f5
14
ff
f0
ff
0a
17
d3
fa
ff
f9
ed
0f
f3
01
09
29
dc
00
fd
01
e8
17
08
0f
de
0d
f3
f7
2c
e9
01
eb
f4
29
ff
0a
ff
08
e7
fb
0b
ea
01
fd
f4
0f
02
f7
09
f2
ff
03
02
f5
13
eb
f7
ef
0e
f2
06
fa
08
fc
ed
f7
f8
21
03
f9
09
0e
f6
f6
ff
21
0c
fe
0b
f0
0c
f6
0f
eb
ee
0a
00
ff
1b
e5
ec
fa
08
fe
11
00
15
0b
06
ff
fa
0d
07
0b
eb
f8
06
f6
f2
f5
f8
fe
f8
09
ed
04
01
0a
f2
f2
0e
ff
05
fe
05
02
06
02
da
f7
08
ff
0a
11
13
0e
06
ee
02
f7
fd
f7
f1
12
f6
0a
f0
17
10
00
f6
f8
fe
0a
f1
f5
0b
0c
0e
0e
0b
f7
0b
f3
fb
05
f8
02
ee
02
f4
07
f0
f3
f4
fa
fd
f4
0e
fc
07
f4
08
05
0d
02
07
ff
f2
fd
fe
fa
01
ee
10
ff
ff
f8
fc
0a
ef
05
fc
f9
05
07
f8
ef
10
f2
f5
02
f5
f8
ef
ef
f7
0c
f6
04
00
f7
0c
fe
00
12
fd
fc
08
f0
01
11
09
ee
0c
f8
ef
0c
f2
fd
10
0c
f8
0c
f7
f5
ee
fc
03
f1
f2
07
0d
0b
11
00
fa
f5
f9
ef
f5
03
05
0d
04
03
f3
0e
01
0e
01
f4
ef
fe
05
f1
f1
0f
06
12
0d
f3
06
ef
05
0a
f6
f5
00
ee
cf
3c
08
f3
de
d7
ef
f5
f5
f4
f2
ec
00
ff
ff
d7
f3
ee
f7
16
2a
ce
ef
09
24
df
0e
f5
0e
09
01
30
e0
25
d4
ef
1c
10
08
2d
0b
1b
ec
f1
f2
0a
eb
08
ff
f9
d7
09
0e
04
4c
e2
f7
0f
ee
d6
d5
0d
07
3d
ee
ef
f0
14
fe
05
d5
10
d3
05
03
e3
06
fc
11
02
d3
f9
e4
10
03
09
d3
ff
e0
ef
fc
de
fa
f7
14
0c
cb
03
06
23
db
f6
fd
f6
17
f4
e7
ef
0a
38
e5
3a
03
f7
19
d3
00
13
01
eb
f9
fb
0b
f7
00
f7
fa
22
e8
16
26
fb
e2
09
fa
fc
05
f5
f7
ef
fb
02
f9
ee
04
f3
03
d8
21
f1
04
f6
09
e7
07
f5
db
f1
de
21
e8
14
e2
df
d9
f9
0a
22
11
cf
f3
07
04
ef
f7
ed
fc
ef
ea
1e
fd
f3
21
ef
ea
05
e9
f5
02
28
c8
0c
fe
e6
0a
16
e3
ed
fb
f1
f3
00
ee
e0
f4
ff
f4
03
fe
f1
e8
e0
f5
04
e2
e9
e2
ef
05
07
02
00
2f
f1
ea
ed
f5
12
ca
0b
f3
07
05
ee
f3
0b
06
19
f7
15
09
f2
da
ea
ec
07
ca
f8
cd
ff
16
f0
f8
e4
ff
17
22
df
c0
23
31
0f
07
29
fe
f7
fb
13
f9
f3
ee
29
f6
1c
fc
f9
d2
23
fa
0d
e5
1e
f8
0a
00
10
0f
e0
12
d5
17
0d
0f
0b
f5
dd
f4
0b
0f
f7
02
f4
24
fb
04
ff
27
c9
0d
fb
e1
07
f8
0a
f9
14
0e
d5
04
d6
f9
23
0c
d7
22
09
27
0e
35
0a
04
1d
09
f9
e6
02
2f
00
0e
fe
f4
01
10
05
2d
01
01
16
ef
0c
10
fe
0f
0b
11
c4
05
ff
ee
fc
ff
06
0b
0e
e1
f5
10
d6
ef
0b
ef
2a
04
ca
11
f0
18
e6
d6
0c
10
13
f1
ce
1e
d5
d8
08
14
0a
f0
1b
06
04
09
14
f3
e9
f9
22
0c
1a
ed
10
db
1f
0f
ec
ec
12
f2
0d
2e
ed
31
d7
0d
da
0d
ff
09
02
f4
d9
f4
1b
f3
0a
04
ed
15
fc
f7
fe
13
ec
ff
09
e3
1c
08
01
0a
13
10
d8
19
d8
fa
20
0a
e2
26
fa
1e
06
28
f8
f9
1b
ed
f5
07
f9
11
04
27
18
03
00
14
22
07
f5
fc
02
04
f2
e7
0d
27
0f
fe
d4
25
fc
f4
0f
ef
10
21
fb
d8
ed
18
ee
0e
05
12
22
f1
ce
21
f5
11
ff
e2
09
f4
18
ed
e3
db
4a
35
d8
b5
e9
0b
e6
f6
02
00
f5
02
f9
f2
d4
f3
e2
f7
d9
4c
e2
02
0c
3f
e3
ed
f1
e8
f2
df
1f
c9
23
cc
d4
02
fd
ed
20
0f
df
f8
f0
f2
fa
ef
0e
f4
f6
f1
1c
f7
ff
6c
e6
ed
fc
f5
f4
ea
18
e6
40
04
d2
0e
32
dd
f6
df
ff
ec
01
09
c2
0b
09
ed
03
d9
e5
e1
e4
f2
f7
d7
d1
d0
ff
ee
f4
f1
f6
0a
ee
e7
07
f0
40
da
f0
0a
ef
03
05
e7
05
21
3d
e7
25
f6
fe
ec
ee
05
12
d7
f0
df
10
2f
ea
fb
eb
fc
17
17
e5
f7
22
0f
00
07
04
0a
fd
f4
14
fd
0f
f2
06
10
19
07
e4
e5
0d
fc
fc
fe
20
0e
fe
04
11
ff
06
01
fa
0b
ff
fc
fe
02
f3
ff
04
10
01
0c
f5
1a
f8
f0
08
11
f0
fe
0e
02
e4
f6
0b
02
1f
0c
f2
0a
fa
11
14
0d
e7
24
04
21
07
1c
f0
ee
04
f9
fd
f7
fb
11
03
18
f1
0c
f2
07
0a
21
0b
10
20
09
f7
00
09
0c
f5
f0
f4
f3
ff
fc
08
fd
08
0a
03
df
f4
14
f3
0f
ff
03
18
fe
ee
02
01
f7
0f
d3
0d
09
10
12
ed
fe
04
f8
02
06
fa
06
05
fb
07
f1
fc
f8
07
08
e7
f3
fa
06
e0
0a
f5
f9
ff
14
e7
f1
0d
06
0d
f0
fe
f1
ff
ee
d6
ff
0b
fa
0e
0f
f3
fc
ef
f8
f0
0c
0f
fd
f4
06
f5
02
04
1a
f1
01
09
f9
f7
eb
04
ea
fe
fc
eb
04
1b
e6
03
08
06
ed
0e
10
eb
f7
05
f2
06
f8
ef
03
f0
f9
f8
f3
fa
08
04
0b
08
fb
0b
07
e8
0e
f2
06
f8
f9
fc
0a
09
fa
08
0e
0f
0f
24
08
0b
07
fd
e7
08
03
f6
f6
f3
e3
07
fd
f8
0c
f6
fd
16
03
fa
09
f2
06
02
09
f1
ee
f6
fa
0b
f8
f4
0c
06
f0
09
f1
0d
02
0a
00
ed
1c
06
06
f1
01
03
fd
00
f7
f7
07
fc
0a
f2
06
0b
f2
0e
ff
fc
f4
fa
04
f8
01
00
f6
25
f3
03
fa
00
0a
fb
ee
f8
10
00
f6
17
f3
0d
f6
f0
f0
fd
f5
f7
fe
03
ef
09
f9
0c
f8
0f
eb
f4
f2
07
f7
f4
f2
fa
02
02
fa
0a
05
f5
00
0a
eb
f8
0d
ff
07
ff
fc
0c
0c
f4
07
0b
05
15
f4
f9
fb
10
ee
ef
fb
f8
f9
f2
06
fa
0e
dc
0e
fe
ee
fb
0e
db
e1
20
1d
01
ef
0a
0b
02
03
22
f5
00
f8
0c
12
06
ff
fa
e5
0a
fa
06
fd
0f
0f
0d
0d
f6
09
f6
03
e1
11
07
f8
fe
0e
e6
f6
10
f0
fe
03
f4
12
0b
f0
0e
03
c8
fa
08
ea
09
f3
08
f3
0b
27
df
02
f5
06
19
f4
e4
2c
f8
1d
06
10
0b
fb
1a
07
e3
f6
02
09
03
1d
00
0d
06
19
09
21
f9
07
0b
fc
ef
19
02
06
f0
f1
eb
25
08
fe
f3
f2
fe
00
fe
d4
fb
fc
e8
09
02
1a
17
fe
ee
ff
f4
15
fd
b7
fd
fe
26
f8
ea
ed
13
0c
0d
0b
07
f4
06
ed
0b
ef
e9
04
f8
08
f2
f1
e2
ee
de
1e
10
fa
f1
23
fb
03
ef
e7
fa
ea
1c
f5
00
fe
dc
da
04
fc
12
0e
df
08
03
11
ff
fc
fd
ef
fd
f3
0e
02
04
1e
09
f1
f2
ec
f9
07
02
fb
fb
ed
f6
ee
20
c0
0f
0e
fe
16
ed
f8
ec
06
0c
ef
07
ff
03
01
dc
00
f4
f4
fb
09
06
05
03
0f
f9
02
09
0b
fb
fe
04
ea
0f
fd
01
ee
00
ee
06
0d
25
fd
08
f2
fe
06
f5
07
06
e1
eb
d8
fa
06
dd
ed
ea
f8
1b
0b
f8
e2
0b
1c
0a
ff
0e
00
ef
ef
0f
f2
0e
fd
08
06
fd
f0
02
e6
19
f7
ed
e5
09
04
07
fa
08
fd
ff
0b
e6
f8
0b
02
08
05
fe
0b
1e
ef
ff
fa
07
03
f4
f9
f7
15
03
f7
f5
e4
06
f4
0d
0b
f8
1c
fe
fd
03
fa
1e
f2
fd
13
08
16
ef
03
ff
07
fd
fa
f9
0a
0e
0b
ff
08
07
f5
f0
09
09
13
f2
ed
14
f0
f9
0c
f8
11
fd
01
f0
0a
ee
ed
ed
06
05
1a
0e
e6
ee
04
02
00
f7
f0
15
04
ec
ff
0d
f0
06
fb
fb
00
01
0f
02
fd
1e
1b
f6
e0
05
f6
f9
01
10
f8
cf
10
0c
02
ee
ff
fa
05
f0
15
03
0a
f0
0f
ec
f9
01
f2
fb
e5
25
04
21
dc
ea
f6
f6
f0
24
fe
c6
00
f3
f1
f5
f0
fb
04
fa
ef
20
10
00
3c
ea
07
ef
e1
ff
01
2e
f3
0a
08
e4
07
26
e5
0d
fd
fb
da
01
fe
da
fa
04
0a
f3
d4
0c
ec
e8
08
f0
e4
c1
f6
ea
0a
e3
f8
0e
01
f7
dd
f5
f9
1d
ee
f5
fe
fc
f1
f5
f0
04
29
1e
d8
04
05
08
f9
f9
f4
19
f2
ff
f0
f4
07
d6
ee
01
f6
1a
04
f1
0b
fd
13
14
fa
f7
f0
f8
0c
0b
f2
f6
03
04
f2
fd
02
0f
f6
0c
ee
ed
fe
0e
ef
05
fa
f1
0c
0d
fb
0e
06
0d
f6
0b
ed
f4
08
23
04
07
f9
fa
f8
0c
f2
0d
1d
15
02
0a
e9
13
00
01
19
0b
0b
10
07
04
f1
0f
ef
fd
0e
f9
f7
fd
08
f8
0a
0f
02
0d
fe
09
f5
fc
ef
0d
fc
0d
fb
fe
f6
ed
f7
f4
ff
03
f7
04
f9
03
f4
f3
f4
ee
ed
f0
06
02
04
f4
11
e5
ff
00
05
f0
fe
f4
fd
09
0c
04
f6
0d
01
15
f8
fb
fd
fc
e9
fe
1c
f6
eb
05
f9
0f
f9
ed
0e
df
0b
15
f9
f6
0f
f2
00
cb
0b
0a
fd
ed
04
eb
f8
f9
f1
ec
ee
16
ff
1c
ff
ed
fb
fd
f6
04
fb
eb
f1
fa
fc
01
eb
ef
fb
01
ff
fd
0a
06
0f
ff
ea
0f
ef
f8
08
09
e6
12
04
f0
f7
0b
fb
ef
0d
00
ef
0b
f7
ea
03
ec
f5
06
ff
07
ff
f3
06
f0
00
f5
fb
ee
0a
00
0b
03
0b
f0
e4
0f
fe
f6
da
03
0c
09
06
04
f9
0d
15
22
f8
ff
f7
fe
da
fd
f1
fa
e4
09
dd
ef
12
f5
fc
ef
f7
0c
fa
15
0a
00
fc
0e
f6
01
01
0e
fe
09
01
09
f1
0f
0e
0c
07
fa
0d
03
f7
0c
f6
03
fd
f1
0c
09
0e
f4
f4
f5
07
04
f9
00
ef
06
07
04
ef
f7
10
f6
09
0b
02
0f
f3
0f
0d
03
12
ed
f3
08
fc
f7
00
05
0a
f1
fb
f8
05
fe
0d
0a
0f
fe
00
03
f7
ff
ed
0b
ef
fd
fe
06
f1
fe
0a
07
f8
09
06
f7
0b
0d
0a
08
12
09
09
01
0d
01
f1
ee
05
0b
f4
0f
fb
fd
f9
ee
00
08
f8
fa
0c
fe
fe
07
04
f8
f2
05
0d
04
04
03
0c
fb
10
0c
0e
08
e5
fc
f4
ef
fc
f0
ed
f6
fa
fe
fd
f4
06
fe
f7
0e
03
05
ef
f6
18
0a
0d
0d
04
01
03
0a
05
0e
11
05
ed
f0
fb
11
07
09
f8
ed
fd
02
02
f0
06
fe
ef
05
0d
0d
0f
1f
06
ea
10
f0
f9
01
03
f7
09
0c
ee
0f
ee
f2
ff
0f
f1
08
fe
f3
fc
0c
00
05
09
fa
02
fe
f7
06
ed
f3
04
ed
ff
00
0f
00
ef
f4
f2
ff
0a
15
fe
0c
ff
ff
fd
fc
0d
04
fc
fa
f8
fe
ee
0b
0a
ff
0d
21
f7
03
ed
10
06
00
0c
f9
08
f5
f9
fd
f7
fb
0b
05
f4
fa
f6
fc
fe
0b
f9
fd
01
fd
f7
fc
09
0d
00
05
f8
f9
ea
f2
10
12
0c
09
0f
f2
11
f2
ef
0a
0f
00
f5
11
02
0f
12
f2
fe
11
f5
f7
f7
02
f8
05
fb
04
03
04
04
fc
ff
ea
f0
17
f5
14
01
07
01
06
f1
f5
0b
f8
05
ff
ef
fc
f4
f4
0f
ef
04
0c
0e
04
fa
f9
00
fb
e1
fd
f4
fb
07
f4
ef
0d
f6
f1
f8
10
f9
0e
05
08
f7
fe
08
fd
05
04
f4
f8
0a
04
13
f3
ee
0a
0d
fd
08
09
13
f9
fd
ee
f2
fe
f2
14
11
f7
f5
fa
ed
fd
00
fa
0f
eb
08
f7
02
00
eb
16
00
f4
01
f7
f9
fd
17
f2
05
0c
e9
0a
f2
fe
00
fb
e2
f4
ee
ff
03
19
f1
0c
f5
ef
f4
04
e2
09
02
02
01
13
eb
fa
04
ff
05
ef
ec
f6
f0
10
ff
0f
eb
f3
fc
0a
f9
ea
f1
f9
f0
f4
eb
fe
f3
f1
f6
03
fe
07
ea
f6
fb
ee
ec
04
e5
01
f2
ed
09
02
f3
fd
f8
f8
0d
0c
de
fe
03
05
fe
00
00
f3
1a
06
ec
07
ff
f5
01
fc
04
10
00
02
f6
04
1f
ea
f6
f0
f9
1f
fa
09
07
18
0e
06
f3
12
04
f7
02
f0
f7
f9
fd
0b
0a
f3
04
f1
ed
f9
0c
f7
e0
07
04
f9
f6
0e
fd
f2
01
05
fb
ef
f8
06
00
fa
0d
e9
f6
11
e8
f6
f5
00
03
04
14
f8
fe
07
09
ee
06
fe
f7
10
15
f2
d7
08
04
f4
0a
0e
f1
fa
05
fc
10
fe
ee
fe
fd
f3
f5
f5
11
ec
f8
00
fa
00
14
fa
0d
f0
f6
05
0a
06
16
f5
0a
00
01
f4
f5
fb
04
0b
fc
fa
0a
f1
0e
f9
04
03
0f
ee
05
05
fe
f9
f1
02
e9
f0
f2
fc
0b
06
06
0e
02
ef
0c
0b
1b
0e
00
0a
0c
0f
f1
f7
04
05
0b
fe
f1
1e
f2
f9
e7
14
f8
f3
ef
11
fb
06
e8
ec
de
ec
21
f8
1c
e3
06
ec
08
f7
f0
ea
f9
03
08
eb
13
11
fe
13
ff
06
0d
02
e6
2f
f7
f6
06
fd
14
0d
e0
eb
fd
08
00
0a
ea
09
0b
f2
0b
f0
f0
13
03
09
ed
fa
14
1a
15
eb
f0
02
ff
02
1e
ef
08
1d
0c
f3
fd
e9
fb
f2
00
fa
e0
0e
05
f6
13
f3
23
0c
03
fc
00
ea
f4
06
ed
ff
ee
f5
f2
05
fa
ea
e4
f2
f3
13
f7
fc
f7
1c
1d
f4
02
06
f3
01
06
f3
f4
e9
0d
01
f1
ff
01
ed
fb
e3
18
f3
f8
0b
21
ff
fc
0c
db
f6
eb
21
e7
15
e9
db
e5
f0
04
27
f7
d3
04
09
08
11
0a
f5
0c
fc
f6
11
fb
fc
19
0b
08
f3
f6
f3
0c
22
f1
ff
ff
ed
0d
0f
d0
08
f9
f1
ef
05
ef
01
00
04
00
f7
f0
fa
05
d4
01
fc
f3
e2
ec
f8
ec
f5
f8
f9
04
0b
01
0c
ee
06
d1
0e
08
f5
f8
06
f6
ed
09
20
02
13
f4
09
fa
02
08
06
e0
f0
d6
05
1d
dc
10
f7
ee
12
f1
05
0f
0d
05
fe
f8
fc
fb
0c
f3
f7
0f
08
fa
fb
fc
fa
0d
fe
fa
f9
0a
ef
19
fb
fd
ed
01
ee
f7
05
02
0c
f4
e0
00
fc
0b
fb
01
f3
f0
fb
ff
f3
f0
0e
09
0b
fd
0b
0f
fa
01
17
00
02
e9
ee
f8
0a
ed
02
0f
ed
02
20
f9
f2
10
0f
04
03
fe
05
01
06
fd
0a
f0
05
08
ec
f3
08
07
f5
06
07
f6
f7
fc
fa
22
fd
f2
07
00
f7
05
fc
06
f9
03
0f
08
06
16
15
fa
02
f2
09
e4
fb
0a
13
e8
f6
d7
f7
15
f5
fc
f3
0a
03
09
06
e9
1b
1b
03
02
08
f1
ed
f8
08
06
0d
fe
10
0b
09
f5
da
f8
1a
f7
ff
e7
12
08
0a
f1
f6
da
e2
05
ff
f4
08
e1
fc
f3
03
f3
fc
fa
f4
04
01
1a
f1
11
f5
03
fc
09
f1
f3
fa
fe
ef
dd
1b
0c
fd
11
0e
f7
ff
03
16
00
f3
0d
00
0d
04
f2
1b
0d
ef
01
ef
0d
32
13
f8
f8
ef
0a
12
01
f0
ff
0a
ff
fc
fc
eb
0c
00
f6
fb
f5
09
0b
04
05
f9
15
f8
f2
f3
0a
05
04
0a
f1
fa
08
0b
f2
06
f7
f3
e7
e0
03
14
0e
04
05
0a
14
0c
fb
f8
03
13
00
ec
f6
e8
00
ff
0a
f9
ee
05
0f
f6
08
04
02
fe
0a
04
0f
0c
df
0f
ea
1a
0f
06
f3
f1
ed
00
0d
0b
0b
db
f7
02
00
06
f8
0e
ff
f5
06
15
f8
f2
00
01
ee
f0
ed
07
08
20
e5
0a
f5
fb
fc
fa
e6
f2
f5
fb
ee
05
f3
01
f3
ec
f8
02
09
01
03
f3
0e
ff
ff
fe
00
f1
f8
fc
f5
0b
06
08
f2
ff
ec
fa
ec
ff
0a
f7
08
fb
13
0e
0e
f4
e7
08
f2
fd
e4
00
09
07
f8
f5
d7
fb
0f
ea
06
ff
0c
0e
1a
f2
f3
0d
10
15
07
06
07
07
09
f8
02
07
fa
00
06
14
f0
04
fb
ff
f4
fa
dd
1d
f1
0d
1b
0c
0f
00
1a
f1
0a
01
f4
f1
0d
ec
f8
1b
f2
f0
f0
04
0f
f9
fa
02
19
dd
fc
f2
e4
0f
ff
fd
0f
0d
1a
fe
01
ef
05
03
fe
f1
0d
01
1d
f2
07
f7
02
16
ec
02
ff
0c
08
f2
07
14
0c
0b
12
08
27
ff
f3
06
f0
ed
11
05
ff
04
fb
ef
0e
ff
f3
01
ec
f0
11
04
f7
ed
21
ee
ef
f5
f3
0b
ef
ee
17
f7
24
f1
f5
0d
f7
16
06
f7
fe
f7
d9
0b
29
f8
f9
1b
08
00
f6
f8
02
f7
08
f1
08
11
0b
f8
eb
fb
01
fd
e5
16
f1
f5
0c
0d
fe
06
14
f9
f3
07
05
0d
fd
ec
ff
0c
fd
0e
0a
09
0e
03
02
ec
1c
ef
f0
11
fc
e5
0c
0f
37
0d
ec
e2
09
03
fa
f0
f7
04
13
f4
13
04
04
05
eb
11
06
ed
f4
ee
0d
07
0c
13
f9
fc
0d
1b
16
10
0b
16
05
fc
12
01
0b
03
04
f7
2a
06
f8
0c
12
08
23
0c
ee
f7
f9
f4
fc
f0
f6
fc
fe
de
1b
05
12
07
e2
04
fb
0b
03
10
05
f1
e0
03
18
f3
09
09
04
ef
ed
02
07
0f
08
11
f4
0e
0e
04
0a
05
f6
00
ea
0c
05
f6
03
02
11
0a
fa
0b
03
12
11
06
fe
02
f5
f4
fe
0f
fa
ed
0c
0c
fd
08
08
f9
00
f4
fc
05
ed
f1
f9
0e
0b
df
06
f3
0b
10
0a
fa
fe
0b
1c
07
14
ec
08
02
ff
ea
03
01
f7
0b
03
0b
ef
03
11
0c
03
00
03
03
0b
00
1b
fd
05
04
fe
fe
13
f1
f9
ee
ec
f1
00
04
ff
f6
fb
e4
fc
04
e2
0a
13
f7
fa
fd
0a
f4
d3
f6
fb
17
ee
ed
02
e6
0e
0b
15
0a
0b
11
f5
f5
08
f8
0d
f7
fb
fd
02
0c
04
e7
02
06
0f
fa
ed
ff
04
07
eb
07
f2
f0
04
eb
05
f9
f8
f3
0b
02
0e
f7
0c
f8
ed
03
f7
f2
0a
09
1c
10
fe
03
e4
2d
fd
10
fc
19
1d
ef
e8
fe
fd
f7
06
e8
e3
ee
0f
f4
1a
f0
02
ff
fe
ec
f3
02
0a
1b
06
06
f5
08
fe
f6
17
f0
fb
06
10
f2
09
f4
1d
fd
f0
f7
06
fa
fc
f0
0c
ee
19
0b
e9
f0
1b
08
f8
fc
09
13
08
eb
fb
eb
f8
00
09
fe
ed
00
05
0c
0e
e6
db
0f
2e
f6
ff
20
fb
09
0f
04
06
01
01
0f
f2
11
0a
07
fe
09
f4
0a
f8
06
0a
06
11
0d
0e
f8
0c
e9
f7
19
08
03
ea
da
07
1d
09
ef
f8
fb
01
ee
01
f4
07
d7
0a
ff
e2
e4
fd
03
1b
fe
1e
d9
20
fa
0a
1d
fe
03
21
f8
0e
07
1d
01
00
18
01
f8
02
0b
1b
11
01
11
fe
f8
fe
0c
12
09
fb
02
08
0a
fe
06
22
fa
01
fa
1f
fb
ff
06
f2
05
fc
0a
ef
fd
00
fa
0c
f7
e7
12
0d
d4
0a
06
1f
00
dc
ff
01
0e
06
f3
00
f6
04
fb
16
04
0a
12
03
0d
f6
0e
f9
f3
f4
0f
ff
23
03
07
e8
0a
fe
04
01
1a
07
02
f5
fb
08
f6
06
f8
18
fd
f6
0e
0d
e7
ee
e7
f9
ed
09
f3
1b
f8
f3
ed
14
02
0b
02
ee
1b
f9
02
f5
f3
05
f1
f3
fa
0c
0f
f7
f4
10
07
0e
0e
f9
09
03
0c
0a
f3
01
f7
f8
01
ff
01
07
01
fe
04
07
0a
0c
ff
f1
f0
02
f2
16
fe
eb
ed
04
f7
f1
09
f9
f9
09
03
f7
fa
1a
fa
ed
06
f2
15
ed
fe
fc
05
ec
e7
ea
05
f9
fc
f8
f5
1b
fc
fc
1c
0d
1d
ef
1d
f1
01
03
08
fc
0c
f2
0e
ef
0e
f1
fb
fc
15
0b
fc
e7
11
ee
ef
0b
f1
11
f1
1f
fc
27
f6
fa
01
ed
fa
fd
fc
e9
06
f9
07
08
fe
0a
ee
06
f0
f7
fc
ed
0a
e4
01
11
0f
13
e8
fe
e9
fd
16
f5
ff
f7
0d
23
f9
1c
f3
02
1d
0f
ff
0a
ee
21
05
13
10
fa
0e
1f
0d
1f
0e
f0
11
04
07
f8
ee
05
f5
f2
e3
ff
fd
07
f2
09
ff
1e
0b
ec
f6
0e
f9
f0
02
f4
06
f3
f1
0f
03
e2
fc
f4
07
01
0f
03
00
ec
f1
08
ef
ee
0e
f6
f5
ff
ff
0d
03
08
fe
f9
0c
f9
fd
fd
07
0c
08
00
03
0d
fd
00
00
fa
f9
e4
01
06
0a
f2
e1
0c
ec
0e
10
f8
fb
0e
08
02
ee
fd
00
02
0d
0a
fe
0c
fd
ed
05
ef
ff
f7
fa
f9
10
f2
fb
f8
08
f3
f6
da
08
ff
07
0d
00
f1
fa
ef
f0
f5
f0
f7
04
0b
f0
f2
f3
eb
fd
01
ec
03
12
f4
f5
ff
ee
04
0e
ee
f9
dd
f6
f1
f0
0a
04
03
f6
11
f1
08
fd
f6
f2
f7
fe
0f
00
0a
02
de
f5
f4
ee
07
0c
f4
f5
fc
fa
0e
f4
ff
0a
e9
00
08
00
03
ed
ef
01
08
05
0a
e7
fa
d6
02
f8
f3
0c
f7
fa
fa
09
d5
fe
da
14
0f
f8
08
f1
eb
08
fe
f6
02
d4
ff
ff
0e
ed
08
0c
fa
09
01
02
fd
ed
0e
10
fe
12
05
01
f7
f5
e7
f3
06
06
0d
09
e5
06
0f
f8
0b
f7
05
f4
04
ff
ef
f6
07
0b
05
fd
01
ff
f2
df
0a
fd
fc
12
f7
fc
17
f1
09
08
fe
06
d4
ff
04
0f
f3
fd
03
f5
00
f8
f3
1c
0f
f2
e0
09
08
fb
ec
00
de
f6
0e
fc
09
ff
ef
14
10
e1
f7
fe
15
0c
10
16
fc
f1
f6
11
ff
f4
0b
1c
09
fb
f0
18
ec
0f
16
02
f5
29
03
03
0a
ff
09
fc
05
f1
06
11
0c
fa
f0
dc
fd
04
e9
02
05
f4
21
01
0a
ef
04
e5
ff
04
05
ff
07
f2
0f
08
1e
f2
fd
06
f5
0c
02
fe
1a
ec
1e
f5
22
f8
f4
08
08
fd
e9
07
17
0c
1b
1a
f5
f7
1b
20
0b
f9
01
20
0c
0e
05
04
1a
0f
0a
f6
0f
fe
06
0f
0a
00
0a
fc
e9
02
13
00
08
f7
f7
0b
f3
f7
18
00
f5
09
f8
0f
f9
13
0c
f8
13
ee
00
00
0c
09
05
17
f9
04
f0
ec
08
fe
06
00
f3
00
ed
fd
0a
17
fa
10
f5
06
f6
0a
f4
ee
f0
fa
fa
fa
fe
ef
e8
f9
fa
0e
01
f9
03
07
f6
ef
04
f7
07
03
10
f9
0d
f0
f2
25
ed
fd
ed
ff
07
02
03
ed
01
f6
f1
0e
e8
01
13
ed
07
fc
fe
02
fe
08
ef
fb
01
f6
11
f5
0a
03
01
f9
f6
00
00
09
ff
fa
08
0a
fe
fd
06
f0
07
fb
06
ec
ea
f6
20
f5
07
fe
f9
ec
08
0a
05
0d
fd
04
0f
0c
e2
f4
f4
f8
10
10
fa
07
00
11
f0
ed
08
fd
ec
ea
f6
06
06
01
0d
02
ff
01
09
fd
fb
14
1d
db
f4
f2
f4
fa
fb
ee
15
fb
07
10
de
0c
f8
03
1e
16
f7
fe
fc
11
f2
f4
f0
05
fc
f3
f3
07
ff
ed
07
ee
17
e3
ea
0a
f9
f7
fb
09
00
2c
fb
00
0f
fe
04
fc
f2
f4
e8
0a
09
fc
0d
ef
fe
10
ff
f8
fa
f5
f7
f7
e9
04
06
ed
0c
08
06
fc
0b
fe
e5
0e
fa
f2
0b
f0
f5
fb
fb
f2
de
00
fa
11
eb
1e
03
01
02
00
0b
ff
08
f1
19
ee
fc
fb
f8
01
f4
00
07
ef
f5
02
0b
f7
07
0b
11
0f
ee
0b
0c
11
f8
02
f0
f8
07
01
0e
00
11
01
fe
f6
03
0b
ef
01
09
0c
04
0d
0a
f2
02
11
fb
04
f8
f4
0e
0f
f0
0a
02
ff
f8
ef
fb
f4
f2
09
04
0b
0f
0d
08
f2
02
ef
f7
07
f0
fe
03
f8
fb
10
0f
f9
0a
05
f8
0f
f1
09
f3
0e
f0
fb
10
0a
f9
03
f4
fd
f3
fc
ef
0a
ef
f5
fc
05
0a
05
f3
f1
11
06
f7
0b
f0
f8
0d
09
ff
f3
f9
f9
0d
f9
05
0e
06
fa
07
fb
0a
07
03
f0
0a
fa
ef
f5
04
0d
f6
13
0f
0c
f4
13
05
04
0b
f3
f0
f2
0c
fe
0b
1c
f2
f2
10
03
0c
f6
f5
13
04
08
ef
f2
fc
05
f3
f5
06
01
ec
07
07
ee
ff
ed
f9
fa
f2
0c
0d
fa
f8
10
04
eb
09
08
f4
03
01
f4
fd
08
08
0a
fd
fb
f2
fa
0a
05
07
ee
0e
fe
06
03
ec
14
0e
f1
f6
f3
fa
13
fa
05
09
06
07
0c
ff
ff
f9
0e
ff
f7
00
0b
fd
f5
0c
ed
07
fc
0f
fc
e5
0b
08
f9
fc
fa
0f
0a
05
05
f7
11
f0
0b
f3
02
fb
09
ff
f7
f4
0d
fa
06
06
03
0e
0a
08
ff
f6
fa
02
10
f2
f7
00
fc
07
f9
fb
01
04
ef
03
04
ff
12
0c
06
ee
f1
01
f4
08
0f
07
e9
fe
eb
17
f2
00
2c
f4
09
04
03
f1
09
e7
10
07
05
09
03
f3
12
0d
f5
01
05
04
f6
e9
07
ff
19
fc
11
f5
10
f5
10
f3
09
fe
03
0a
f4
02
03
08
03
fe
f2
fb
f1
0f
02
e5
ed
ff
09
f0
f4
f5
fc
fd
02
ed
ef
f3
28
f7
fc
f4
05
fd
ef
09
f6
04
21
f7
0c
00
10
f4
09
0d
08
ff
00
f7
05
14
01
f1
fc
ff
26
df
37
34
dc
b9
dc
fc
e6
fb
f6
ee
da
fb
05
fe
ce
f4
c2
fd
c8
4c
e5
f9
fb
37
db
0a
ff
e1
f5
e6
44
d6
38
c2
e2
ff
07
ff
2d
ef
ca
ec
f9
fb
01
de
f8
0e
05
f0
37
01
10
4a
ec
ed
fd
ec
e3
d3
3d
ee
4b
f7
df
10
3d
ab
04
cf
04
d0
f4
e9
d4
f5
0c
06
ef
ee
ef
d6
df
fa
03
d3
d9
de
f2
07
e6
02
ef
28
0e
c1
00
f7
1a
d0
f6
05
fd
fa
f0
e1
fe
1b
46
d8
2f
05
f3
f1
ec
f6
42
dd
f1
d3
f7
23
f3
0b
cf
fc
1d
09
f8
08
ef
f2
00
ec
f6
f3
0c
00
f5
ee
f0
05
02
fb
06
ef
10
07
0d
f7
fb
00
fd
0e
ec
12
fd
06
09
03
05
ec
eb
06
ff
ee
06
0d
f3
f3
0b
f1
f0
0b
01
05
04
f3
04
00
01
0b
03
ee
ef
f5
fc
08
fc
fc
06
06
19
12
f8
17
ea
15
06
0c
0b
f3
09
04
f3
fc
03
10
04
06
fb
ed
09
0b
09
ff
ee
0d
ff
11
fd
0d
fe
0c
ed
f4
ff
fa
f2
09
f7
f0
04
05
f0
ee
09
12
ee
11
ed
e7
f5
fe
f9
14
fa
fc
00
e2
f6
02
f8
05
f6
e7
16
ef
02
fd
f4
04
f4
0b
12
fc
f7
fb
0c
f6
e2
f4
02
02
dd
35
e7
ff
01
0f
e1
ed
f3
ed
f1
cf
34
f0
10
ff
e6
ef
fa
f1
12
00
e8
fc
fc
f6
04
f6
fd
06
f2
f2
ff
0d
f8
1e
e9
fc
f4
d2
fe
e2
0b
ea
13
02
ef
f2
1c
f9
0c
fe
03
ef
fc
e6
00
f5
f0
10
07
ef
0f
ef
e0
f3
fb
e6
1b
e4
00
ff
e7
0a
00
25
fc
df
04
f4
0e
e9
fc
0a
05
f6
0a
0a
02
11
1e
d8
05
ef
fc
02
de
fe
0a
d8
06
e3
ee
da
cb
0e
09
11
1b
fc
10
11
f4
e0
fe
f6
fa
f1
02
f0
fc
05
06
03
03
ec
fe
0d
fa
25
08
0b
f1
1a
f3
f6
01
04
03
d1
09
05
09
f3
db
f7
0e
fe
13
03
d9
10
fd
f5
fb
ef
fe
fe
f5
ed
10
eb
f4
05
fd
0c
f5
f1
f6
f2
1d
f6
1e
0b
f2
0b
0e
f5
01
f6
f3
f2
f3
f6
f0
ff
ee
f0
f2
f3
ef
fe
db
03
f9
fb
f1
e2
ff
09
f3
fd
fe
06
fe
dc
f0
ff
0a
c2
08
ec
f7
fb
ee
f5
f0
05
17
f0
17
f9
ef
06
f2
0c
0c
e3
f3
e5
fd
1e
d1
02
fb
ef
0b
0e
05
01
fb
01
19
07
05
03
fe
ef
e6
02
0a
fc
ed
0a
00
f9
f1
0c
14
f3
08
08
13
10
09
01
ff
db
fd
02
f2
08
ee
f4
11
07
0e
ff
f2
f0
0e
f6
12
14
f4
10
07
04
fb
f1
f9
f4
1c
f9
f5
fd
09
01
ef
ec
f3
f3
f9
12
f9
fb
0c
0c
06
0f
04
01
04
ee
f2
e5
00
07
18
07
eb
f0
0d
17
fb
01
e9
06
01
ef
fa
0a
fa
09
ef
0e
e8
f8
ea
f1
0a
03
0b
05
06
f2
f8
08
0a
f2
fe
f1
14
05
06
ee
f3
d7
f2
e4
01
f5
0d
0e
ed
0d
0a
06
f2
11
09
0b
0e
01
ff
fc
11
f3
f8
f3
fd
f3
f1
0d
f0
0a
0b
0e
01
10
fe
09
02
0f
f7
07
f6
0d
07
0c
02
f5
fe
ed
0f
ee
00
ef
fa
f8
04
f3
f9
f7
0f
f2
f4
11
ee
0e
fd
10
11
f2
fa
01
fe
04
f1
07
f3
10
f7
0a
fe
0f
0d
fb
0a
ef
f0
f8
10
11
f0
07
0f
f5
0f
f0
08
fd
05
ff
0c
f8
ff
f8
ef
0c
f2
03
f3
08
fd
0a
00
09
06
ff
f5
00
f1
fd
0c
01
10
10
ff
0c
11
fd
fd
01
f6
f0
08
05
fc
f5
f8
fe
05
f8
06
01
f7
f5
1b
0a
16
03
fe
0d
dd
fa
14
09
fd
f8
02
f1
d7
ff
01
ef
ee
0b
fd
12
f9
dd
f9
df
ef
12
fc
fc
eb
fb
10
f1
f8
11
d3
04
f3
f4
f2
09
fc
0b
02
11
0b
05
fa
03
1c
f7
0d
f0
fd
09
0e
ec
ef
f5
06
0a
0d
ee
f6
02
0f
0d
07
fe
09
0f
fe
04
08
02
0c
13
e3
09
11
f9
e2
01
0d
f8
fa
01
f5
10
02
f2
f4
f3
fc
fa
ee
fa
f4
f9
fc
14
07
f3
f3
0b
fd
ee
04
f4
f7
f6
02
d4
fe
e0
09
11
e9
12
f8
03
fc
1f
d4
be
29
35
05
fa
18
10
ff
06
27
04
f4
fd
19
fd
1c
01
04
ca
1d
0e
01
c2
47
f3
00
39
fe
0a
d5
10
cc
17
0a
29
07
f7
c7
fc
3c
f3
f5
0d
f6
25
fc
09
f7
23
e2
fb
ee
d8
08
f8
0e
06
16
21
cd
12
dd
ff
31
00
d9
02
0f
1e
02
2c
02
0b
34
08
fa
f6
f7
2c
17
2d
17
12
f8
37
13
22
04
f5
27
04
0f
03
10
39
09
fe
d8
14
fb
ec
ef
0b
f4
2b
04
df
cc
2a
d7
10
eb
13
34
fd
db
24
ff
29
08
dd
f7
04
37
fa
d0
f4
f8
f1
fa
f3
f1
f2
ff
fd
ef
fd
f9
03
f3
01
08
f5
11
f1
00
f2
f1
ee
0b
03
0f
03
07
02
10
01
fc
f2
f3
f4
f6
01
0b
06
06
09
ef
05
ef
fe
ef
fe
f4
03
01
fb
f2
0d
f9
fa
fb
f3
f3
00
0b
05
0f
fc
fe
f6
03
f7
f8
fb
05
f7
01
05
10
02
f4
0e
f6
f8
10
f8
0b
0d
f5
fe
03
ff
f7
0b
f3
03
f3
f2
10
f2
07
f1
ef
fc
fe
04
f9
f9
fe
f4
fc
fb
fe
fb
fc
02
02
f3
ee
f3
0e
09
f6
fc
f7
0e
0f
fe
f3
02
04
0d
03
01
ee
f1
1d
0f
0e
05
18
f1
ff
fd
fc
01
f9
03
0e
f2
04
09
00
f2
07
00
0b
ff
08
f7
01
11
e8
0b
f5
0d
f9
00
f9
e3
e9
07
eb
f8
0b
ed
01
0a
09
02
ff
0c
fb
10
05
f8
0e
df
14
f3
01
f4
fa
1b
fc
0a
ff
fd
07
fb
e4
0d
e9
1a
fb
1e
03
08
1b
f7
ff
fa
ed
1f
19
ff
fb
0b
07
02
fb
14
09
f0
0f
f9
06
f9
ee
02
ff
ef
f7
eb
02
06
0a
f3
f2
01
f4
f9
fe
fa
fc
f9
0d
e9
17
f1
09
ff
eb
ec
f3
f4
fc
f8
fa
ff
01
e2
31
2f
e2
df
e5
05
e7
02
fd
03
d4
0e
02
05
c9
ee
d2
f6
cb
38
ef
08
f9
30
f2
ff
07
e3
f3
c8
33
eb
18
ea
d1
fd
f4
09
25
f7
d6
0a
fb
10
10
d6
00
ed
fc
fd
1c
ef
f9
2c
fe
0c
f2
fc
f4
eb
27
da
38
f6
de
08
2d
e2
02
f3
03
da
f2
09
ed
10
fd
08
f7
f1
05
dd
c8
ef
01
f0
f0
ec
fd
f8
ee
f2
ef
23
05
da
07
ef
2c
d8
10
f8
ee
0a
0f
d7
f9
22
36
df
2c
f0
f8
d4
f4
ee
2f
e2
fc
da
0d
3c
db
05
e4
ef
25
0d
0b
10
06
05
13
0a
03
0d
00
fb
ef
ef
0f
05
02
01
16
fb
f1
02
01
02
fb
f2
fa
0f
ee
f2
f6
fb
fd
13
0a
f7
f3
00
08
06
fa
f0
d7
f4
ed
f6
07
01
fc
01
00
11
05
f4
0b
ec
11
ff
02
0d
fe
fc
09
fa
02
0b
07
fb
0a
f5
ee
0b
00
fa
ed
f2
09
f0
0a
f8
f3
f5
0c
f8
e7
01
fe
f1
ff
ff
03
f2
10
05
f6
f1
08
1a
fe
08
ef
eb
03
fc
ef
02
ed
12
ff
fd
0a
fc
fc
0b
0b
e5
07
f4
ff
02
f9
ef
ed
ef
eb
0e
01
04
08
0e
19
36
eb
05
09
f3
f8
0d
f4
10
e6
f6
f6
07
e7
03
01
ee
f8
2a
e7
fe
f5
08
f3
f8
0d
fc
0b
f5
19
fe
09
de
07
f4
0b
f9
18
fb
e8
05
07
ef
fd
f5
fc
ec
00
f1
1c
00
ef
1c
11
eb
fb
f0
f5
f7
38
dc
18
fd
f0
0d
08
f3
f1
f2
03
f5
eb
ec
f5
f1
0d
0f
08
e3
f9
f8
f9
f6
f4
ed
e6
ed
f6
ff
f2
f8
00
f5
f3
ee
fb
05
25
e8
ff
08
f3
ea
06
0f
06
23
1c
04
1d
05
ee
d7
fa
f6
2d
dd
f1
e4
05
21
ef
f4
f7
01
31
e0
2a
0b
d6
e6
fc
ff
eb
f0
f0
fe
ec
ff
0c
0e
db
f0
da
f6
da
31
c9
ee
08
1d
e2
0f
02
dd
0f
e5
1d
cb
2b
02
f2
fb
07
ff
3e
fd
00
00
f6
07
f3
f1
10
f8
0b
e3
24
f1
f9
0d
f8
0b
01
f7
f4
e8
f9
ea
34
08
e4
04
30
0c
0e
ee
fc
ea
f2
04
e7
04
ef
f1
fe
c8
f9
e5
e8
03
0a
d7
f3
e2
f1
f9
f7
ef
06
14
01
ec
10
f3
1f
ee
01
f6
f0
02
ef
e0
f4
19
32
d0
27
f6
f2
fe
e2
f9
16
e5
f1
e2
0b
14
f0
fd
e0
07
12
ff
09
f3
0e
07
14
03
13
ec
01
04
f5
02
05
0e
fe
f7
ff
06
e1
01
f8
13
f6
0a
0a
f0
08
f8
07
ee
f0
06
02
16
e0
09
01
f5
0d
f5
10
fc
fb
ef
f1
f3
05
ff
ea
19
ef
0f
09
0c
06
03
09
0d
fd
17
fd
f6
06
fa
06
f7
02
f6
fa
1b
fa
04
ee
e8
03
02
08
f6
f9
0d
f8
13
00
fb
f2
f3
f8
0f
00
fd
ee
05
fa
12
ea
ff
f6
f2
09
01
0e
fe
f2
0e
fc
fa
0e
f6
0b
09
09
f8
0e
e9
02
f8
ff
ff
fd
0d
01
09
f4
03
f7
0b
1a
ed
37
04
e0
da
de
03
fe
f5
05
f4
d9
00
11
f1
e8
0f
e0
fa
e8
23
d7
fa
01
12
ef
f5
11
e5
ef
dd
22
f6
1d
ef
de
f8
f9
ef
0e
f4
c7
f2
0f
f8
fa
f0
f0
09
f2
ed
01
f2
0a
32
e0
00
fc
04
e3
d8
24
e7
25
10
ea
ef
25
f5
f5
d5
f4
d6
09
ef
f5
10
f5
ed
f2
f0
01
e1
f3
08
12
f5
f9
ee
06
05
f0
f5
f7
fe
02
ce
06
f2
0e
ed
09
09
f3
01
11
06
f6
18
12
e5
23
02
f3
e5
f3
0b
15
e3
fb
f7
03
06
f7
f6
e2
f0
14
f1
1e
1b
09
f4
fa
0a
0f
f5
f5
ef
dd
01
10
f1
ff
0b
e5
0f
e9
07
07
05
f1
07
f2
07
0f
fa
fb
e3
1d
f2
1b
f0
0a
e9
0c
ed
0f
f8
f6
fe
f2
06
0e
08
00
ff
08
06
06
f9
fd
09
f4
ff
fe
ee
f6
f0
11
ea
20
01
04
fd
12
e8
07
ef
f7
f2
00
ed
e9
08
0a
fe
fb
fd
f5
f5
e7
0c
ee
f8
02
f0
09
ef
18
0c
f3
01
0c
f7
ec
01
33
f6
ef
f6
01
f7
f6
f7
fe
0b
02
0e
f3
0e
16
f1
0e
0b
fa
f1
f7
f5
10
0f
e4
0e
f6
ff
29
f6
04
0f
f4
07
e8
fc
f9
0b
f6
fb
e7
13
0f
ec
e4
f8
f9
f4
05
18
f9
ec
ef
fe
ee
f8
ed
e8
f6
f0
0b
f8
08
fb
ff
e8
f9
ee
16
0e
ec
fc
09
0c
f8
0e
02
03
ef
05
0b
0d
02
1f
02
eb
fa
02
f4
07
1c
04
0f
ef
ea
ec
15
d1
f8
fb
f1
03
f5
01
e9
ec
f4
f7
f7
05
f0
fd
f4
0e
fa
08
f7
ea
ff
ec
fa
0b
ee
06
f7
eb
ec
00
ff
ed
ef
00
f2
08
ef
0a
fd
fd
1f
f0
01
08
f0
ea
01
f8
08
03
02
ec
04
f4
e6
08
f5
08
14
12
fa
eb
1f
27
16
07
32
f4
03
06
ff
04
08
09
19
f6
1f
fa
e9
f9
29
ee
f6
e4
0d
0b
f2
fc
01
f0
e8
23
f8
17
f0
fc
ef
f1
f1
fc
ef
eb
0f
0b
0e
10
0b
04
07
20
04
0f
f4
e3
33
e8
ef
0c
06
09
00
f2
dd
07
01
01
f2
11
fa
13
0b
0f
f5
ef
1b
ef
f5
07
0a
10
07
1a
0b
f3
fd
f9
f2
26
f4
fa
19
08
04
fb
0a
08
0c
f1
fc
05
04
f4
00
f9
09
08
0c
e3
e5
0b
fa
0d
ec
00
1a
f2
f0
f7
0b
07
ea
ec
fd
02
fc
0c
f1
0c
1a
28
00
fb
ef
ed
f3
f4
ed
fc
0b
00
f3
ef
f6
f5
e9
06
03
1e
0a
fa
fe
2b
0b
03
02
0c
06
fb
00
0d
14
f6
ff
df
fd
09
25
f5
0c
f9
ed
ef
f3
f6
fd
f6
f9
0e
0b
ef
02
19
e9
f9
ec
fb
e8
0c
0b
0a
0f
fa
fb
f8
14
f4
fa
fc
0a
fd
0e
07
f1
05
04
fd
01
02
fc
0b
07
09
07
fc
06
fd
f5
ec
ed
fa
ef
e3
ef
fa
00
06
07
ee
fc
f8
0a
f9
04
e8
fa
0f
fe
06
21
0d
04
04
f9
0b
1c
05
08
0d
11
11
11
f0
08
09
04
08
e4
f3
00
2d
24
ed
1a
0b
fe
06
f6
0c
fd
fc
00
fd
1b
f6
eb
f6
0b
fd
0d
fd
06
04
ff
f3
0a
06
e7
0e
e6
0a
de
00
0e
ff
e8
f6
f1
fe
f5
ff
fb
11
fe
ff
ed
20
ff
f7
0f
f7
05
f4
0e
f7
11
0e
ee
ee
e1
05
04
0f
ed
f2
0a
20
f6
09
ff
ed
16
f2
09
f1
f8
01
fd
14
ee
07
fd
f8
0c
01
10
f2
0c
04
06
06
07
0e
11
01
e9
f0
fd
ff
04
f6
f9
10
f9
00
ee
15
e7
fc
f3
f9
1e
06
00
f4
03
04
02
e6
08
05
0c
f8
f5
0e
ec
e8
0f
ff
03
0c
fe
f5
06
01
fd
f9
f5
06
14
0a
05
0e
0c
fc
0c
f2
fe
05
03
11
ff
09
f2
f6
f8
13
f7
0b
fc
0e
0d
00
f7
02
fa
f7
0c
f0
0d
fa
f4
fa
07
05
fe
0d
07
fe
fa
0d
00
09
0d
fe
ed
f7
06
10
14
0e
f8
09
e9
02
f7
17
08
f5
fd
00
00
11
0b
07
0b
11
f7
08
ec
0b
17
07
0b
03
ff
11
ed
16
ed
fe
f1
f2
ee
03
0e
05
09
f9
08
18
0d
02
09
0d
01
f5
07
f0
f8
06
f2
f9
fb
fe
03
e3
13
01
02
fa
fd
de
31
2f
fb
fa
f9
eb
f3
f0
fc
0a
c9
ed
07
09
e4
fe
df
f2
c4
38
e7
fd
f6
2c
d4
01
ef
d0
f1
dc
21
dd
29
f9
00
fb
ed
0f
27
01
cd
0f
f7
10
f3
d5
00
03
10
f5
28
fc
ff
27
f0
e8
04
f4
f5
f3
20
d8
27
09
df
f0
27
d3
fa
f2
fc
fb
00
05
db
0d
ef
f5
fa
e1
f7
de
ce
f4
0c
e7
d8
04
05
0a
f5
0e
f1
28
14
eb
f7
0a
24
cf
04
fe
f4
0c
0d
e6
08
27
1a
d0
21
ef
fd
d7
f6
fb
31
e2
01
de
fc
1a
e6
f6
d1
01
24
03
f2
1a
f2
f9
29
04
fe
f3
0e
0d
e8
03
0f
ef
f1
f3
08
ef
f2
f9
1c
fc
01
ee
19
01
fb
e4
03
f5
01
24
0f
ff
e6
ea
06
04
fd
07
f0
fc
ee
0c
01
0b
0d
f1
f9
fb
05
f7
f1
14
1b
e3
06
fc
17
06
0d
ec
ec
fa
03
10
f4
e5
fb
09
f8
02
f9
0a
07
f1
f4
fb
ff
12
19
fc
f7
0b
01
15
e1
04
f6
09
fb
08
02
02
01
f8
f2
03
f5
ee
f2
fd
fc
f5
f3
04
09
08
08
f5
ee
07
07
ee
02
0a
f5
f1
09
ca
03
1c
f1
09
f0
ff
f2
fa
09
fd
0c
fc
09
f4
fc
fe
10
0f
06
f7
f1
01
f8
fb
11
f0
06
02
05
f5
0d
f6
06
f5
0f
11
0e
f2
f4
f9
08
0e
02
01
05
0c
0e
05
f8
0e
08
01
f3
0a
09
fa
04
fa
04
08
03
fd
0f
f0
00
0c
0e
f1
01
fb
fd
07
10
fa
f5
f8
03
04
11
f0
0c
f9
fd
0a
fa
f5
10
fd
06
f9
fc
ff
f5
f4
f5
06
04
fa
f0
f3
12
07
fe
11
f6
0c
0f
f4
fa
04
fd
0f
09
11
0b
f2
f9
08
ef
07
f8
f8
f6
fb
0a
f8
f8
0d
ff
0c
09
f0
f0
f2
fd
f8
fe
f2
f3
dd
ff
f0
f9
f7
fe
fd
0e
f0
14
ed
fa
0b
ec
0f
06
fc
f0
0e
f0
09
12
f0
08
1f
01
0c
10
f8
09
f2
e2
09
f3
0f
18
0a
26
0d
fb
03
08
03
f1
fb
09
16
15
f9
0d
1c
f5
fc
fd
ff
f1
f9
11
fd
10
09
fd
11
0a
ff
fa
fa
f2
df
ea
13
00
f0
05
08
f3
fe
19
e9
03
01
0e
12
18
0a
02
02
06
0f
f7
f1
f0
eb
0c
09
f6
17
07
01
11
03
08
f9
f0
f3
18
03
f9
03
05
e6
fd
0c
f9
fd
0d
f3
fa
12
14
f9
06
03
fb
e7
1c
2a
f9
e8
0b
04
e7
ee
ee
f8
ee
f1
fe
08
f1
f1
f6
f0
02
25
fc
00
0e
13
f8
f0
01
ec
00
fb
09
fe
1c
f3
f4
0a
03
04
13
f9
ff
0c
f3
f5
f3
fd
fd
02
f7
ed
20
ef
f1
17
0c
e8
07
09
e5
07
1c
ff
0a
02
03
f6
04
f4
ef
f5
ef
f6
f6
0d
fa
ee
09
00
ff
e7
f6
05
fd
0e
05
ff
01
f6
ef
f7
f0
09
0e
11
0f
00
fc
03
09
0d
f8
fc
0e
e3
fe
e9
ef
f9
1e
e3
11
f8
f8
fd
e3
ea
0f
e0
01
f2
00
0e
fe
fd
de
0e
09
22
d9
d4
00
16
02
f5
13
fc
f3
fc
1d
05
06
f4
1a
fc
06
f1
09
ec
fc
08
ff
e2
25
0c
f9
08
05
fa
d6
05
ef
13
0e
12
01
0f
ec
fe
1a
fd
11
10
0d
0f
fe
00
09
09
e8
f9
05
e6
05
f0
f4
15
03
0c
d0
08
f9
01
fe
06
dc
0c
f8
1c
fd
1a
08
ec
0c
0d
fe
fa
11
1d
ff
10
02
0d
00
0e
26
0e
ef
05
14
10
f2
00
f7
07
11
f2
eb
05
08
fa
00
f5
fd
10
ee
dd
df
0a
f4
fc
08
01
0e
fb
c9
1f
02
19
e9
d4
05
fc
04
f1
e2
13
eb
df
1d
2a
20
f9
0f
f2
f0
03
11
f1
ff
f0
18
08
21
ee
21
e3
2c
00
ff
e7
0d
f5
f9
20
0b
24
e4
2c
ef
0f
fd
f7
03
f7
e1
03
11
f8
fa
0c
fb
1d
02
02
0e
18
e3
fe
ed
ea
00
fe
f2
0d
0b
24
dc
06
e5
00
1e
09
f5
ff
f7
17
09
2a
eb
f0
2d
03
03
ef
ec
1f
18
15
0a
11
fc
22
1e
29
ff
ff
19
04
01
f0
f6
18
06
0f
dc
0f
04
0c
f6
f8
f8
26
0d
ec
e1
21
e1
02
06
0a
27
f7
d9
19
f8
fe
04
f2
12
00
1c
ef
f0
f1
1f
20
0c
f9
f9
ed
0a
f6
ec
fd
e4
f1
f4
06
fb
07
e0
0c
d4
09
04
04
ff
1c
07
06
ef
e4
f8
dd
0b
f5
13
e7
f1
ed
08
05
21
f9
da
f4
07
f3
f5
f1
02
eb
f3
11
1b
0c
06
1a
f9
ea
03
fb
06
00
0a
db
04
f2
02
0d
1d
d8
0f
0b
fa
fa
08
0a
e9
ef
ef
08
0f
f4
fd
ff
d1
04
0a
01
d8
09
f5
02
f0
07
ef
ff
f8
f8
0a
f2
07
eb
f2
f4
04
ee
fa
fe
07
12
12
09
14
05
07
ea
00
08
0e
db
fc
e1
04
20
f5
00
08
02
1c
f3
f9
f1
1e
f4
11
f9
f6
e9
ff
06
11
ef
0d
f8
f9
f5
17
fd
ee
e7
0c
02
f5
0a
06
0a
11
f7
fc
01
e9
ee
e4
0f
02
ec
f2
10
fc
10
fb
f4
f9
0e
fc
15
f3
03
13
f4
f6
07
02
f1
f0
04
f0
f8
07
0c
fa
00
05
0c
0a
fc
02
10
07
10
03
ff
09
05
04
03
06
f8
01
fe
12
f1
09
fc
f4
07
1f
f2
10
10
ff
f0
ff
07
07
17
ff
f4
0a
08
08
04
02
ed
0d
fd
0e
f4
e4
f4
e9
f3
0b
fb
fd
08
09
f8
0b
09
08
ed
f2
02
1a
00
02
10
ec
07
14
18
11
f3
1d
02
0a
fa
eb
0d
09
0f
02
fb
19
fb
f4
03
07
ed
f2
ed
0a
f2
0a
ff
fc
f4
ff
05
0b
13
e9
f4
fd
f2
ef
fe
fc
fd
0d
f4
06
12
f2
04
ef
15
f8
ee
00
f4
fc
f4
fe
0e
05
14
ff
e9
f1
02
fb
08
fb
04
fe
1e
fe
1d
ec
02
f1
f7
f7
f2
ff
02
0e
19
fa
f5
04
0c
0b
1b
00
ec
1f
09
09
13
fc
19
f3
0e
ea
e2
fc
0b
fe
09
f5
14
fe
e7
e8
00
07
fa
00
f7
03
08
e5
09
02
fa
ff
ee
f8
02
05
fb
fd
f7
01
f9
0e
f1
ea
0c
01
f5
ef
f0
01
f7
0f
ef
0d
f7
f4
0c
02
ff
08
0b
fc
f9
fd
08
09
05
00
f4
04
17
0d
01
f5
ed
fb
fd
0f
0b
03
f4
fe
0e
06
06
05
0d
06
fa
f8
0c
03
00
14
f2
f5
f5
f9
06
04
f6
0d
f4
ef
04
08
f2
f0
f5
f7
01
11
ff
ec
f1
09
fd
f8
f0
06
f2
03
fa
f8
fe
f3
0c
fa
0e
12
f6
01
1e
03
08
f2
f3
fb
e0
0f
0d
00
0e
0d
f2
fb
09
fb
f3
f1
05
04
06
f4
06
13
f1
08
00
00
ef
fc
0d
00
ee
0f
0b
f8
ef
1c
1a
f0
f2
1c
00
f9
fd
19
fb
f8
0e
20
f6
11
00
0c
ee
0f
fe
fa
ed
0d
f0
ff
03
fe
03
f7
ef
f3
20
1d
0c
03
f8
e9
f8
f4
12
00
0d
f4
1b
f9
f1
16
f0
c2
07
f1
f0
f2
fd
07
ee
1c
0b
e7
00
ff
11
10
01
e9
09
f4
17
ef
15
0a
01
1c
f2
04
0c
f7
1d
12
07
0e
10
00
0b
2b
f1
05
05
11
ff
fc
01
f7
16
f2
05
05
01
f5
08
ff
08
02
0e
fa
e8
e0
17
e5
f3
eb
01
08
fc
f0
08
f9
17
f4
d7
0b
0b
1c
0c
f3
f3
fa
1f
f1
19
00
0d
f2
f5
01
ec
e7
ff
0a
f3
03
f1
e7
f9
fe
0b
fa
eb
f5
1e
ef
fc
f8
f2
f3
ed
09
e9
fa
f9
f4
02
fb
fc
0a
ed
dd
f6
0c
fe
0e
f6
10
f6
0a
ff
15
f3
f3
15
00
f4
f3
12
f3
fc
20
eb
00
ef
f7
06
00
e9
f8
f9
fa
0b
f9
fc
e8
fd
05
ee
03
f5
f3
ee
f3
ee
fe
0e
ee
09
02
02
ff
f7
08
09
09
0b
ed
fb
1b
e3
02
02
04
ff
ed
ec
0c
15
14
f9
17
f5
fc
f1
00
ef
07
e2
fb
f3
f7
05
e6
02
f9
06
15
07
f9
e0
18
1f
0c
f7
1f
f3
02
0f
06
09
08
0b
fc
f1
19
f6
08
e4
15
fd
07
e0
fc
08
ef
14
06
02
e3
12
e2
0f
03
07
04
07
fc
f3
0f
ec
ee
0f
0a
04
f7
f7
04
1e
f8
fc
f2
f3
24
f5
f8
04
14
17
e6
f9
f1
f8
fb
fe
05
04
07
1b
ff
0a
f2
0a
08
ee
07
f3
06
1e
11
01
f9
01
08
00
02
1f
f0
fe
0a
f1
f7
ea
09
0b
f8
ff
e7
09
04
03
ff
07
02
02
ff
f8
ef
12
ed
f0
f6
fc
18
ea
fd
f8
fd
ea
f3
e5
f2
0e
fa
08
f3
06
37
2a
f6
da
e5
f1
fe
ff
08
f0
e5
f2
fe
f4
d3
05
ff
f0
e8
1a
f0
eb
0f
33
ff
fc
ed
ea
0f
e0
19
ea
16
ea
eb
ec
fd
0c
10
fa
e7
f9
ff
fd
06
f7
ff
f6
15
02
0d
f0
f9
29
f4
fb
f6
e7
f4
ec
1c
ea
38
ee
db
0c
3d
cd
f4
e8
0d
f4
04
07
e3
00
fd
ff
07
f6
f5
ea
e4
f6
09
fc
ec
f7
0a
00
da
fa
09
13
f7
d8
0b
0d
28
d7
0f
03
f0
f2
02
ef
0e
08
20
f0
0d
03
f1
e9
ed
04
1c
e0
03
cc
0e
09
dc
08
fb
ff
2d
f7
06
0e
f1
f7
f9
f1
10
08
ef
fa
0e
f8
ff
fd
16
06
03
f8
05
03
15
f0
f9
0e
fb
08
03
fa
08
0c
0d
1c
fa
fc
d6
f5
f1
f6
0c
0b
ed
f5
fb
f2
08
fa
f0
ff
fb
15
03
0b
04
ee
0f
06
f6
15
01
f6
f6
fb
f6
06
ed
fa
08
08
fd
04
ef
11
ff
fe
f9
f2
02
fb
0d
15
ec
01
12
ed
f9
0b
f9
12
f9
ef
ef
09
08
09
f3
fb
f4
06
05
ec
f1
fc
ed
fe
f3
17
f0
f4
09
00
ef
05
00
ed
f7
00
08
0e
02
fd
10
ff
12
0b
fe
ee
f8
10
16
16
fc
06
0d
ef
fb
fc
0b
f2
db
f6
0a
08
f3
f2
07
fc
b6
0d
04
00
09
17
ef
08
09
e7
0a
cb
15
0c
03
e1
e2
e7
f5
0d
f9
fe
cc
07
0d
0b
07
e7
05
0e
09
13
0c
f9
f5
0d
03
01
00
d5
04
f9
0d
be
0d
04
e8
00
0e
db
f7
ed
f6
e4
eb
e9
ec
01
e9
f7
f3
ee
fe
eb
cf
04
11
06
d8
fb
04
0c
10
0a
05
16
ff
e1
f3
f1
f7
e0
08
06
fc
0a
0b
0c
fe
12
16
e8
01
fb
03
e1
fb
fe
21
dc
08
c3
0d
fc
d9
ef
f6
01
12
01
07
15
fc
01
fa
fc
0a
fc
ed
06
f8
0b
0d
fd
08
0a
fd
f1
f3
f5
02
05
fc
13
05
f1
f2
0b
ee
fa
f5
0e
f0
10
01
00
01
fa
0e
ef
fb
00
f3
ef
fe
0f
f4
f8
f8
04
fa
10
f5
0d
fb
ed
f3
f1
f4
f3
0b
f0
04
07
f4
07
fa
09
f8
0e
07
00
04
fb
08
f3
01
07
f0
0d
f7
0e
07
0b
f0
0e
0d
0e
ef
04
14
08
f7
f6
f9
09
f1
07
f6
0b
08
ef
f9
0d
10
fb
09
0d
0b
00
12
02
02
0b
07
0b
02
f3
0d
f0
f8
0c
ff
fe
fe
0e
0d
f5
18
25
f7
f0
f9
0d
e6
0d
05
04
f5
f5
0d
f3
04
f7
fb
09
01
2d
02
eb
f5
1e
ff
00
04
f6
ee
f9
22
01
00
ec
fb
f3
08
06
0c
0c
11
04
f8
0a
ed
fd
f4
fa
ec
f2
22
07
07
15
e9
13
02
fe
fd
fe
1e
16
07
fb
02
f1
04
fb
09
de
fc
fb
0c
ec
ef
f0
00
00
08
e9
e6
ea
0d
f0
f7
e9
f3
e7
f2
09
eb
ef
fc
eb
ed
f8
0f
09
16
d9
ed
ec
06
ff
fd
f0
f6
1a
11
e8
0a
f9
fd
fe
fa
0c
2c
f3
08
0c
18
12
ff
f2
f3
0a
10
13
eb
f1
13
0e
1e
f4
05
f1
03
fb
0a
0d
10
0c
13
06
0e
0c
f6
09
03
0f
fe
ec
15
0b
ff
07
0c
07
02
0e
06
fa
f2
08
05
09
0b
02
01
f9
f9
ef
01
0b
fa
0a
06
fd
05
04
f9
07
fe
01
05
06
fd
14
08
f2
0c
f9
18
0a
0d
f8
08
fe
10
fc
11
f1
16
f1
fa
0b
0c
14
f8
0a
09
ef
f9
0e
11
ec
07
0b
f7
0e
fe
00
fb
03
ef
03
f4
0a
0d
f2
09
f3
01
0e
08
f1
12
17
f2
11
01
f2
09
00
09
0f
05
ed
0e
09
f7
01
fb
f7
f6
e0
3a
2c
ee
dd
ea
0a
e8
fa
f1
03
f6
0e
0a
f1
d7
fe
de
ff
03
30
e7
ed
f4
26
e5
ef
ff
f4
ff
fd
22
d4
1a
e2
f4
e8
00
f2
21
06
f4
f6
f3
f7
02
ed
03
05
ee
e5
35
ed
0e
27
f6
10
01
ff
e7
f7
32
0e
3f
ff
ff
ef
2f
f0
ea
e3
01
d8
f1
fd
e6
ee
03
02
fd
e5
f2
d8
f1
0b
ed
d9
f6
ef
ed
f5
ee
12
f8
22
f6
d3
08
ed
2c
ea
07
f7
07
f2
0e
eb
06
23
41
e0
3a
f6
f9
ec
d4
0b
3e
fd
f4
10
14
42
02
ee
f0
0b
2d
f4
1f
07
fc
03
0c
f8
0d
ff
fc
fa
f4
13
f7
0b
02
fa
f9
06
cf
02
01
01
09
0f
14
f6
f0
e1
06
c8
00
04
12
f7
dc
e6
f6
fc
18
fc
ec
0b
f9
f1
00
ee
fc
06
f4
08
0b
fe
fc
fd
05
09
f3
f1
f9
00
03
cc
12
0e
f0
ec
11
db
0c
04
03
15
0e
ff
ef
0e
06
00
01
14
0c
09
ee
fe
0b
09
f4
06
ea
ff
0e
f6
ff
14
07
0c
0a
f8
00
de
f8
08
10
06
01
07
fb
19
15
f3
11
f5
07
db
fe
0f
13
ef
fd
cf
f1
10
bf
f4
ec
f2
12
f2
0a
f5
18
11
18
fb
0d
07
fb
0e
e5
f7
f0
f6
f7
ff
fe
06
d0
f5
09
ea
0c
f9
0f
f5
f1
f0
0d
e5
10
fa
01
fd
d6
db
f2
06
18
f1
d7
01
f3
f2
0e
fc
09
05
f4
f2
03
f4
f6
ee
1c
00
0e
f6
00
0b
f5
ed
0d
f3
f9
f1
11
00
04
15
f8
04
f4
09
0d
f1
f5
f5
f8
0e
0b
f4
ef
0f
0b
f9
f8
f8
05
0a
04
09
03
07
f7
ff
f0
02
f0
f5
f7
03
0a
06
f4
10
f0
0e
0c
03
0e
f1
08
fe
18
eb
0f
ed
07
d0
0d
08
ea
ed
f8
08
00
07
03
0f
0f
1e
22
0d
ff
0b
02
f9
f1
f8
fa
06
0d
fd
0a
01
db
f6
fd
06
05
09
09
f6
02
fb
04
de
06
03
04
09
e5
ef
05
fc
12
fa
e1
07
02
00
04
0d
04
04
0a
0f
09
05
f3
ea
2c
f6
f0
ec
04
07
f4
e9
ee
07
06
00
ff
f0
fe
22
fd
03
10
0a
12
07
f8
f6
0a
1d
18
06
e0
07
fc
1d
eb
ff
0a
ee
15
02
ee
11
f0
1f
0a
08
f3
ed
f4
f9
05
f3
00
16
02
11
fb
00
f2
02
06
00
09
ed
12
f4
0c
e2
f6
13
ef
03
ef
f6
ea
09
e2
09
08
0a
03
f4
05
fe
f1
05
0b
0f
eb
06
2c
f3
05
0d
eb
fe
13
01
f2
fc
f4
04
f2
10
01
fe
fb
20
ea
17
ef
ea
03
ee
03
ef
e7
ef
fb
0b
f3
11
0a
f0
eb
1a
0d
f1
06
dc
2d
01
f5
e9
07
13
ed
ee
f8
f2
0c
0e
f5
f7
06
03
fb
1f
06
0e
0c
eb
02
ff
00
0d
fa
0f
e5
10
ed
14
03
09
08
0d
08
10
05
ea
05
21
09
0e
03
02
f2
fc
f4
fd
0b
07
07
fd
f9
1a
f3
04
ed
f3
08
fa
fb
ea
06
df
f3
ea
df
f7
f6
ee
f8
fd
fd
14
11
f9
ea
05
0a
f3
fc
f8
02
0d
01
f1
f4
f8
10
06
fc
01
fe
09
05
fe
05
f9
f5
fb
0d
f5
0a
f4
23
ed
f8
f4
13
f9
10
ef
f9
0c
f2
f4
04
0e
fd
02
f5
05
22
f8
03
1a
f2
ef
02
e9
04
05
f2
f6
11
10
10
01
fe
05
0b
05
0b
14
04
03
fb
f8
f4
fe
f1
f6
33
e4
fa
fc
ff
05
13
0d
01
f7
f5
01
ef
0f
01
f3
f1
04
01
f7
0c
04
12
04
07
0c
08
1b
ff
e8
09
f5
0b
f7
08
07
06
f3
f8
e7
07
00
e4
07
f9
06
08
f1
06
0a
f7
f2
0f
08
f7
fd
ef
ed
ec
0e
fd
06
f4
fe
10
f1
fc
13
fa
00
0b
13
fe
f0
f7
f8
ee
f7
08
f7
16
f3
d9
0b
f6
ec
15
ee
d3
01
05
f4
0e
0e
01
ff
eb
06
0b
f2
ff
f7
15
09
f2
e8
f6
f9
02
fa
fd
f0
07
ee
11
e8
0d
13
00
08
f5
01
11
f2
02
f6
ff
ff
f6
fa
e9
f2
0a
0c
05
f6
f3
03
06
09
f7
0b
0d
fd
f9
00
04
f3
ec
fa
f3
0e
f7
14
09
0b
09
f5
02
07
00
03
0f
05
07
e6
0d
da
f4
07
d1
0c
0c
04
12
05
f8
ed
07
10
15
fd
12
f1
fa
f5
ef
f1
fc
f8
08
08
01
0b
f4
ee
0e
08
f3
fd
23
f6
0f
11
f3
ed
f3
0e
f0
f8
f8
f9
10
0c
01
ef
f5
03
09
f2
ec
1f
f4
02
fa
16
f2
fb
0a
ea
0e
f6
f2
f7
09
13
ff
fe
fb
11
14
f4
0a
0d
06
0e
0c
ff
07
fe
fd
0f
fe
04
f7
08
17
11
05
fb
09
1c
08
14
ff
09
03
03
fe
fb
ee
0a
f2
ff
e5
fb
f4
0a
04
f7
02
13
ef
fa
ef
12
05
f7
f4
ef
16
f5
ff
01
f7
f4
f4
fd
06
ed
11
02
f5
f2
1f
07
ec
f1
eb
f7
ee
fc
f3
f2
1b
fa
f3
f5
e8
05
ee
0e
02
1e
e2
0d
0a
11
e6
f3
fa
0b
0d
ec
2a
f2
2f
ee
fc
ff
f3
f4
10
06
24
07
08
ef
06
ec
f5
f9
f8
e8
25
f6
fa
1d
f4
fd
0b
29
04
e6
10
0d
2c
10
ed
f1
20
0d
03
ea
0d
f4
0c
0c
e2
f9
e4
0f
00
05
18
f4
1c
f2
fc
fd
0b
fa
ed
f6
e5
0b
f7
0d
f0
e2
01
f5
12
2e
f6
fb
10
eb
f8
e8
05
06
1a
dd
24
06
eb
d8
f9
0b
0d
ff
07
0f
06
fd
fc
12
ea
01
18
0d
f8
e7
01
0a
00
05
ea
e8
ef
0a
f3
fc
05
f1
f3
fc
eb
00
fe
1a
fc
0a
f5
f5
00
f3
f8
f1
06
fe
11
03
14
ec
09
07
f5
ff
03
0e
ef
fe
fb
05
ef
ff
0a
0b
09
08
fe
07
03
05
e5
f5
fc
fc
f4
09
f0
ed
fb
0d
fd
00
06
0e
fa
f4
fe
04
08
00
08
ef
f2
e8
0f
05
f5
00
05
0f
ef
0b
fd
01
ef
fb
0b
09
f7
12
02
f9
fa
f0
0e
fe
00
0b
ed
eb
ee
08
f7
0c
1b
f3
fa
0e
fd
f3
ef
f2
09
fa
03
fd
f5
e9
e7
0c
08
07
0b
0c
e3
02
05
26
16
02
24
fa
fa
ff
fc
07
f2
02
09
fe
06
f5
f9
ec
0a
06
0b
e1
08
f4
0a
17
0b
01
04
1b
fd
0a
f5
f1
0c
01
05
f3
e5
00
0e
f2
ec
19
0a
04
17
03
03
f0
ef
e7
1d
f9
ee
18
00
05
00
f2
f0
0d
08
08
f3
01
0e
25
f5
09
fa
07
0f
0e
0e
f7
0e
0c
17
0a
04
fd
05
12
09
12
0d
f5
04
fd
0e
f7
ec
1b
f1
00
fe
15
f2
01
0c
10
ff
12
0a
07
f9
09
ff
0e
08
f3
1f
f4
f1
0d
fc
01
01
ea
f0
fc
13
fc
ee
01
f9
d7
0d
11
f5
f6
f4
fa
0b
f5
0a
f9
04
08
09
06
0b
fe
05
0a
03
0e
fa
f4
06
0c
f4
fd
fb
fd
06
f0
fb
0b
02
fc
06
07
ff
06
0f
0c
03
0a
04
fb
0c
f5
04
12
e5
0d
fd
fd
e3
ed
00
1b
f5
fc
fb
0f
02
ee
0e
fd
11
ff
01
fa
00
08
f7
03
06
fd
fd
07
02
06
fd
f4
11
f9
05
0b
fe
14
05
01
01
fc
06
22
f6
05
f9
f8
01
03
fc
0c
00
e8
f6
ed
ef
eb
0b
0d
0b
03
fe
f8
fe
f3
fc
1a
f0
0e
06
ee
fe
06
03
f9
fc
f5
23
21
0b
ff
f7
05
ed
f8
ef
02
f7
fb
f9
0b
f7
f7
f1
00
09
19
0d
04
0e
04
ed
03
04
0a
0b
14
fc
f0
08
fd
df
0d
f9
0b
fd
f9
d2
f6
01
05
fb
eb
0c
f0
00
e2
0a
0b
05
0e
dd
09
0b
f6
f2
e7
15
f8
ff
ff
f6
0e
f8
18
f1
fb
ee
f2
f6
08
04
ed
fd
ff
f9
01
04
f5
0e
0c
f3
ec
06
f1
0c
08
f9
0f
fa
29
fd
fa
fe
f9
0b
1f
fb
0a
f7
0e
03
02
ef
10
02
fe
1b
10
f5
02
ed
f4
11
f8
0a
f7
ec
04
e3
02
06
f1
10
04
e1
0c
15
24
22
02
14
0c
fd
f5
0a
03
08
03
25
f0
26
fb
03
f0
15
f1
02
dd
12
00
f5
fc
09
07
f9
19
f6
0f
ef
e0
ea
0d
e7
f3
ea
f3
fe
04
ec
26
ef
09
fe
1a
ec
fb
f4
eb
20
ec
02
f4
0d
23
f9
e4
f6
ff
0a
10
ec
fa
ef
12
f5
0c
02
fb
18
08
01
ea
ff
14
fd
1d
f2
f0
13
13
07
13
fa
ee
09
f7
fb
f1
0c
31
0e
0b
03
0b
f3
04
fa
05
f1
0f
f9
df
e9
15
e7
03
fa
f5
0b
f9
ea
03
04
e6
f3
f8
f0
fd
18
03
f9
0a
f7
13
f8
f3
0d
0b
fc
fa
fb
ff
f9
f9
ee
fd
07
01
f2
0a
ea
14
f5
f2
ec
20
f1
f8
f4
0d
f7
f9
0b
f1
0a
fb
ea
06
07
00
04
02
e7
f1
0a
0c
f2
fa
00
ed
0b
fc
0c
0a
f4
ff
08
fd
07
f9
e9
f5
01
f8
08
f8
f4
fb
00
e2
07
06
fa
ee
09
05
0a
01
f8
ec
f3
01
fe
e5
e8
f6
f9
ff
f9
f4
f3
08
01
0a
ec
03
08
fc
02
f8
0b
e2
f5
f1
f4
0a
ee
f7
fd
0a
09
03
fc
fa
ee
ed
00
f5
1c
fc
f6
01
09
19
e8
02
fc
f1
05
02
27
fa
f9
f2
04
f9
02
fd
f6
00
da
0e
03
f5
e8
f3
f4
f0
d2
08
f1
f2
fe
1c
f5
03
f0
e8
ff
d1
01
f2
1b
fd
d6
e3
f7
f6
17
fa
c4
04
fb
f6
ee
f5
0b
0e
08
02
0f
f2
11
14
f5
08
fe
fd
01
ea
05
ca
1b
03
f3
02
1e
e9
f1
05
f2
ef
fc
ea
01
0c
fd
07
07
ea
fd
fd
db
fa
f4
f8
ea
f3
f2
ee
0b
f7
0f
22
fc
fc
f3
ed
fd
db
f2
f3
fe
12
fb
11
f2
16
15
03
1f
07
f6
04
ea
ec
18
f6
fd
d4
f3
f3
e3
09
f6
fa
f6
19
03
e6
12
0c
03
f8
0f
0a
ef
00
04
ed
f3
09
0f
fb
f3
0f
f4
01
15
07
f6
01
f9
f6
ff
08
fd
fe
12
07
17
0e
11
fe
fa
0f
0d
09
02
f8
04
00
ee
07
03
f5
0b
19
e8
fe
0e
0f
fa
01
00
0d
01
1c
fd
f1
f0
07
0c
08
ec
0c
08
07
f4
fb
0b
f0
f6
02
fd
07
11
f5
0e
12
14
0d
fe
fa
00
fb
ea
06
19
f7
0d
14
ee
02
fc
0b
f8
ff
ed
03
0f
f8
09
18
00
ff
fe
08
f7
0e
ef
ef
0c
0c
e9
07
0d
0a
06
04
fc
05
01
f3
e8
ea
02
f3
f7
10
19
10
f5
fa
fc
ef
ef
08
ee
f0
fe
ec
14
ee
f9
07
12
f9
f9
fc
f1
ef
0d
fc
07
0e
05
fd
fa
09
df
fb
06
04
03
fc
fa
0f
06
ff
0c
f6
09
07
f5
04
09
ee
0b
06
13
0b
04
f1
03
fc
0f
ea
0c
f8
f1
10
f6
ee
07
fc
0b
fb
0a
f0
06
ef
03
ef
fe
f4
0a
02
07
f3
f7
ff
f2
11
f0
fc
04
ec
01
00
ee
f5
f4
f4
f2
f0
f8
03
07
f9
ef
02
05
0c
fb
04
fa
03
05
f1
f7
06
01
05
f1
f2
ed
f7
e3
03
f7
ee
11
07
07
04
f5
f7
ed
09
f0
fa
fb
0e
f5
02
f9
f0
f7
01
f4
00
02
11
f2
f8
ef
07
08
f1
00
08
f6
05
12
fb
0d
f6
1b
00
0f
0c
1a
fa
20
05
0b
fe
fe
f8
03
12
08
f3
0d
f8
f4
13
f0
eb
0b
07
f6
07
01
f3
0a
f5
e3
06
0f
10
06
e1
f9
fd
f1
08
07
fc
fa
ff
0d
00
f4
f9
12
07
02
e7
fe
f1
ee
08
ec
01
fa
1d
02
06
f2
f9
06
15
f6
f0
02
ec
04
f0
00
f8
17
f9
14
f3
fe
f8
e7
00
f8
f1
05
ff
00
e9
fa
08
f7
11
01
0a
0e
fd
05
0b
0c
ef
f6
03
f3
f9
13
0a
0a
fd
f2
0b
f4
f7
0f
09
f8
07
0e
01
0a
f1
0a
10
f8
09
ee
07
fb
11
f7
f2
ef
fe
10
02
fa
f8
11
03
0b
05
10
ff
05
f4
ef
09
04
f2
11
05
fd
0f
0a
fa
03
0e
08
06
02
0e
f4
f4
12
f4
0a
f0
f7
fb
0d
f9
0c
12
f4
00
03
0e
02
f4
0c
ff
0b
ff
f0
09
11
08
0c
ee
01
04
0f
08
00
06
f6
f4
0c
0d
02
0d
f2
07
09
f8
09
08
fe
0b
f4
f8
00
09
07
f1
11
09
03
03
01
f9
fd
06
fa
0c
06
0a
f8
10
00
01
f8
0f
ee
0d
fb
08
0c
fe
fd
fa
0d
f6
08
09
ee
04
0f
ef
01
f6
f7
f9
11
09
0c
05
0c
07
ff
ea
f6
05
f9
06
f8
fd
fe
0e
fe
0b
f7
ff
f3
fd
06
01
02
fc
09
fb
04
ff
0f
f0
f4
f6
f7
04
f2
fc
0e
12
f9
f8
04
f7
10
0a
ff
07
07
ef
03
f4
01
03
08
08
14
0a
ec
f8
10
ef
0a
12
0b
08
f7
00
fa
04
e9
07
f9
f0
ef
0a
f8
ef
08
12
f6
08
f4
fa
07
ea
0e
f2
0a
03
ec
f1
ed
fa
0e
03
06
f7
02
f9
0c
f7
0c
0f
e7
0f
03
fd
0b
10
f0
f1
00
10
12
09
f9
07
0b
02
0d
f5
f9
05
0f
f1
01
f8
ff
ef
f9
e7
de
0d
f0
f3
0d
06
0b
11
07
07
10
13
06
07
ef
03
1a
f1
fe
14
ee
0b
0b
fe
0e
f4
04
fa
12
09
07
0f
14
08
10
10
f5
1c
fc
0c
0a
f1
00
fa
f1
0d
11
04
03
09
09
ee
f2
f1
0e
0a
fe
00
f6
ff
0d
11
f3
02
22
f2
f5
12
f8
0e
fb
07
fe
0c
0c
17
0f
0e
f9
04
0d
f2
09
01
f4
02
ef
0c
0b
10
07
f8
04
f3
2d
39
d9
e0
e3
fc
d7
fe
06
ec
e3
0d
fa
03
dd
f6
e0
03
d4
4b
e4
fb
fb
48
e2
f6
01
f6
ee
e9
2b
ee
1f
de
03
ea
fb
0e
42
07
f1
fc
fa
ee
fe
f7
ff
07
f2
e6
33
ff
f7
38
d5
06
f5
e5
df
fd
44
ef
34
01
e2
01
28
ed
04
dc
00
e0
ff
f0
e2
f9
f4
fe
f3
eb
f7
f6
ee
ed
f3
e1
ee
d1
ef
ea
f0
ef
ef
15
f6
d3
05
0d
18
e5
0e
07
f2
11
08
cc
ff
1a
1e
dd
3a
0f
00
0a
eb
01
37
d0
f7
dc
0b
24
d4
f2
d4
0f
2c
15
fe
f7
15
14
f3
08
16
f5
e7
08
f0
09
ee
f3
14
f5
17
f8
f1
04
fd
f4
09
0e
00
0a
04
f5
13
f2
09
f4
06
fe
09
f0
f1
09
f5
fe
ed
ef
f3
04
08
08
f4
ef
fc
ef
f6
07
fb
02
f5
f2
04
ec
fa
f7
05
fb
0d
07
09
03
03
fe
f9
03
07
10
ef
00
ff
f3
e9
07
00
fc
15
0d
01
02
0b
10
03
14
fa
ef
0d
01
f0
f7
ec
fe
09
fe
f3
12
fb
f8
07
07
0b
0e
03
03
0d
04
11
09
f9
f5
fb
f3
f6
f5
f0
10
f0
fb
f7
0b
0b
ff
f6
2d
ed
e7
12
0f
05
f5
1f
f5
f7
f4
16
f0
0a
05
17
f3
17
f8
22
f4
18
06
ff
02
10
f1
06
19
01
0b
fb
ee
07
1e
11
ed
fe
09
07
08
0a
02
01
02
fa
1a
0c
00
0d
ea
f3
12
08
e3
f7
fc
f0
ee
05
f9
ea
05
dd
f7
13
0a
f4
27
ef
03
f7
13
06
f6
15
fd
f3
f1
f0
08
1f
09
f9
f4
07
f9
2d
02
0e
01
0c
07
fd
ff
f7
2e
0f
ff
f6
0f
f2
0f
02
f8
0f
0b
08
ff
ff
0a
d8
f5
09
28
fb
0c
10
e9
f0
0b
f8
c5
09
f5
14
0e
f9
f3
43
1a
db
cd
ee
f0
f0
ff
f9
f7
f0
07
f9
07
f0
f3
db
0a
f9
25
f2
0b
06
34
f3
f7
ee
ef
ef
e2
1a
e7
1a
e3
e1
f1
08
09
3b
05
dc
01
fb
0f
ee
ec
f8
f8
ff
e0
2b
f3
07
3c
cf
fa
02
f8
f3
e5
25
e6
36
ed
f6
0e
1d
f6
09
df
0a
db
ed
02
d9
ee
0d
fb
f9
dc
f4
f0
f5
f8
06
dc
e1
df
05
f6
d3
0c
0a
0c
ed
d3
ed
f5
38
e1
fc
f4
0b
ec
07
f4
04
27
34
d4
26
ed
f6
f0
e9
09
29
f4
04
00
f3
20
de
f6
ea
09
1a
fb
f4
ed
1b
ff
04
f6
fe
ff
f1
ff
f7
f4
fe
fc
19
f4
09
01
dc
f3
05
f9
ef
0e
08
0b
10
03
f9
d8
ff
f3
03
ff
ea
e2
f6
f7
f2
0f
cb
ea
02
04
fb
0f
f6
ee
0d
fc
0e
fd
05
00
01
ef
04
f4
06
f2
0e
d4
0d
0c
06
0a
f7
d6
ef
15
f3
ff
f6
f9
0f
0b
fa
f7
03
10
0d
05
d5
ff
0f
fe
e5
06
ee
f2
0f
f8
f3
07
fb
f9
0e
fd
10
eb
f0
ea
06
ff
f7
03
0a
fe
15
09
09
f8
07
02
f7
fe
0a
e4
11
e7
f9
f3
cf
ee
e4
0a
ff
f8
ee
f0
ff
fb
f0
ef
f5
f1
f0
f5
f3
f3
f6
05
00
f5
10
02
0f
0e
fd
01
f2
0d
f9
06
05
0a
f0
f3
f8
fd
fa
f6
f5
0d
04
0b
00
03
07
f7
11
00
f5
06
02
f0
0b
fe
f9
01
0a
f3
f1
f6
07
f3
08
0c
00
fb
f2
00
fd
fc
0e
f5
f9
fd
f0
0d
0c
0f
f2
11
0d
f5
f1
0a
f1
04
f0
fd
09
fd
fe
0b
05
fb
f5
00
00
f0
0a
0f
fb
06
02
08
05
f8
0c
fc
ff
f3
f5
fa
f8
f0
ef
0b
00
f9
09
f5
f6
f9
fa
f6
f2
f8
04
f9
f3
fa
10
11
1d
fa
11
f8
12
f2
08
06
e8
05
00
f9
f2
fe
f9
f6
12
0e
ee
17
05
ef
08
14
07
fd
ff
05
08
dc
08
0d
fb
01
02
fe
00
f3
0c
08
ea
f3
0b
01
fa
09
fa
08
1d
13
12
f3
01
08
05
fb
f4
f9
0d
08
06
dd
17
0d
ef
0e
0f
f8
0b
10
08
fb
f8
e7
fb
f4
ed
04
fa
f0
12
f5
eb
ff
03
09
ed
13
eb
e9
f7
01
fc
fe
f5
fa
04
f1
14
ee
07
fc
f0
f5
fe
fe
fa
f8
06
f6
fa
fe
f8
ec
01
f5
0e
f1
07
f2
ff
0e
e5
0c
04
10
08
27
f3
02
0e
0d
f6
f8
08
f6
f4
0a
1c
06
fc
10
1d
06
03
f9
fc
ea
03
0b
f6
e2
15
04
f0
0d
06
0d
00
02
ee
09
1a
09
00
0d
f7
12
24
f7
0d
02
f9
2b
f8
0b
eb
20
f2
f4
06
06
00
ed
ff
10
21
09
f2
17
f5
fb
03
f8
e2
0a
10
02
ee
20
0c
f3
1b
05
0e
fc
12
03
06
0f
06
07
f5
17
22
2a
16
f4
0e
04
11
f2
fa
0f
0f
01
f7
1e
10
0d
0b
fa
06
17
02
f4
09
08
da
f3
f4
0a
24
fa
f6
2e
f4
13
03
0c
01
11
01
09
ed
08
02
f9
02
0e
ef
f0
04
04
f3
f8
0a
f8
0d
f2
0d
f1
f2
09
0c
fb
00
f4
06
0f
f3
ee
f3
08
fe
f3
f8
0f
f3
ff
0c
03
fa
f6
05
0d
10
08
fb
04
f6
07
fe
f0
07
fc
10
fc
f5
11
f2
08
0a
f6
f8
f8
10
f0
07
ee
fc
01
f3
01
08
f6
f6
ef
fd
f5
0b
fd
f9
f6
04
05
01
10
0f
01
f9
04
f3
11
01
ee
fc
f7
06
fc
05
ff
f7
06
11
ef
f5
f4
0e
08
f7
02
12
08
ef
0d
09
f9
f6
05
00
0a
01
f5
f0
05
f8
f6
03
f1
f6
fa
f6
05
fd
05
13
06
f5
fb
0a
ef
ed
f1
fe
f4
fb
f2
06
f4
12
ef
0d
ff
fc
ff
06
fd
00
05
0a
1c
07
0f
17
fc
01
15
e1
f6
01
fc
06
fe
f3
0d
fa
fd
f2
f9
08
f7
06
0c
f6
06
09
01
04
f3
01
04
11
01
0c
f7
10
f3
09
fe
12
f4
ef
0c
0d
fe
0b
ea
07
f5
ed
08
09
f1
0c
f4
08
0a
02
fe
ff
12
fd
f7
03
fb
fc
07
f0
0e
02
f9
03
18
ed
0b
00
fb
f1
13
f1
f5
f5
05
fb
09
0d
0a
fd
ff
16
fa
0c
f8
07
0e
ea
f8
15
f7
f1
f2
2f
12
f3
e3
e6
fe
fb
0d
02
fe
f4
07
fb
07
dd
05
f0
f5
d4
3d
eb
f8
f5
42
f5
06
f8
ee
0f
d9
18
de
18
ed
f8
e8
0e
f8
15
0c
e6
0a
ef
fa
03
e7
f9
0f
fc
e7
2a
0f
ef
25
fe
00
0b
d2
f2
ef
23
d7
20
04
fd
f2
1d
e4
f3
e8
0f
e5
04
0c
fa
f0
fd
04
ef
f1
25
f7
ce
f6
06
f3
c6
f2
0a
0a
f5
11
f9
33
ff
ef
10
ef
12
f7
f5
00
0d
fa
0f
f6
0e
2f
16
e5
27
07
fd
fa
e9
f7
24
e6
08
ec
f6
22
cb
f6
e5
00
18
f4
e8
fe
fe
12
11
07
08
f8
fd
f1
f9
fd
fa
fe
19
f0
0f
0d
f8
e7
15
07
0c
08
fd
ee
ee
00
06
f2
f4
08
08
0a
e3
f8
f2
f5
ef
f6
e2
07
ed
ed
03
18
05
07
f3
11
08
f3
05
ea
0f
03
ed
fd
16
1b
fe
e3
0a
07
0d
ff
02
ed
ee
12
0f
0c
f0
ef
07
07
f6
f8
05
0d
fd
fb
e7
f8
fd
0c
f0
05
06
0a
10
0e
ef
f2
fc
1e
f2
f0
e8
0e
0a
f0
f7
0e
f1
14
f3
08
eb
0f
ec
f3
08
eb
15
0c
f4
fd
0c
00
f3
fb
e7
fd
03
fc
f6
ea
0d
1d
fb
e3
07
01
f2
00
0a
ee
dd
ef
f2
fd
fe
06
e2
00
d9
08
ec
01
03
1d
f6
f4
00
fd
0b
ec
08
f2
1a
e6
e9
04
ef
fa
2d
04
e6
f4
00
00
ff
fd
fd
ee
08
eb
24
f5
0d
15
08
00
f4
e9
f8
e8
1c
e2
27
00
f3
f4
14
d7
02
fc
0b
d8
0e
ee
f6
f0
07
e7
04
e7
ef
ed
e0
0c
0e
fe
eb
fe
fc
0a
de
fc
04
02
0c
ec
f0
f0
25
ff
0b
f5
f4
f5
09
09
02
10
26
f1
0d
fc
f0
fb
f8
ec
1b
e9
fe
dd
fc
07
ea
f5
ed
fc
02
ea
16
fc
d1
cc
fd
f9
d1
f5
fc
0d
db
f4
0d
f2
f8
07
fd
f6
d7
0c
f3
00
f0
0b
ca
0c
fd
f0
14
e5
f1
e6
0e
bf
fa
f5
00
ef
0a
f2
d3
fa
0e
12
f9
de
f5
ef
0d
e7
fd
f8
ff
22
d4
fd
0c
c8
cc
ca
09
c4
06
09
f4
fe
10
c4
f3
ce
f6
e3
01
ed
d1
0a
eb
e9
10
e6
fa
cb
cc
05
f5
d8
db
ea
15
f1
d9
0b
f8
ff
f3
fb
fc
0a
f9
d9
fe
f4
f6
02
f5
f6
f4
16
06
e8
19
f6
fa
ee
e8
0c
04
df
f6
e1
03
f5
df
10
f7
06
04
fa
11
01
12
02
0e
f2
fa
08
fb
f1
00
07
ff
ff
f4
04
f3
fc
ee
1e
f3
fd
ee
1a
0d
f4
ed
ee
f6
ca
10
fd
08
fc
d2
06
11
02
09
f0
fb
ed
12
03
0d
0b
f3
eb
11
07
1e
fe
f6
09
03
f4
09
15
f3
0e
f9
df
13
02
ff
fb
fd
e6
08
01
0d
06
fb
e6
00
06
f0
08
f2
06
17
0b
eb
fe
0a
14
08
f3
f7
12
e6
ff
f9
22
03
e6
f9
fa
0e
1c
f8
0b
06
1d
f6
f7
01
1b
14
0d
1c
f3
08
10
f3
f7
1b
e1
fe
fd
03
1e
f9
f8
f1
f5
0e
d8
43
31
bd
c9
c1
f7
e6
f0
f7
01
fb
fc
f6
0d
c2
f8
ce
04
f4
47
d9
05
f5
5f
b2
02
f7
f8
02
e1
5e
c0
3f
e4
e9
e5
f1
02
55
fd
e0
fc
fa
fc
f6
c8
fd
04
f0
c5
31
fe
f2
55
ea
e9
ef
eb
da
ce
4b
d4
44
fe
cb
04
51
db
f5
ab
f3
d1
f7
05
d6
03
f3
f3
00
c3
1b
c4
d7
f2
08
c2
b8
d9
e8
0c
cf
f0
05
41
fa
ac
08
ff
49
ef
0c
fd
ef
1c
f0
d1
fc
59
4c
be
38
01
fc
04
b8
00
2f
d5
0b
de
ec
38
da
fc
c3
f4
31
ed
39
1d
d6
ca
f0
09
fa
f4
05
f5
0a
f1
fc
f9
b7
0f
d0
ef
ce
5f
e1
04
06
47
eb
fc
fe
f4
f9
c3
3a
e2
4a
ea
d9
f7
f7
ef
63
fd
c0
fd
f1
f8
f2
e5
04
0e
fa
d2
4c
f2
f5
42
f9
0e
05
da
dc
da
2d
e0
60
fa
f1
05
63
e4
f8
ce
07
c2
fa
f1
d3
01
f8
02
12
cf
07
ef
bc
07
02
cd
da
d9
0a
02
d6
fa
07
2a
fb
c6
02
fd
5d
f5
06
06
02
02
07
cd
ef
3e
49
dc
4b
f2
f5
d9
ef
0b
36
d9
0f
c3
f3
1c
d5
f4
c7
00
1e
fe
09
2d
f8
ff
e9
f2
fa
09
05
06
e1
ee
f4
0c
e2
f1
dd
10
e6
18
01
fb
01
10
02
ff
f3
f8
ee
f2
16
f8
17
f3
d9
f4
0a
04
22
fa
d0
f3
fc
0c
06
f4
f9
07
03
00
1e
09
0b
01
13
09
f6
ea
0c
0a
23
ea
06
fd
00
f8
20
e9
ff
01
f3
e9
f9
f5
ed
0e
04
01
07
f1
11
07
f0
0b
f9
f1
ee
ec
fa
02
11
fc
0a
2b
f0
e5
ee
f8
1c
df
0a
02
f1
f8
ef
ec
f9
0f
26
ff
19
01
fd
f4
fb
09
1e
f9
f2
ea
ef
0b
de
fb
f4
f3
04
1a
f2
04
0e
22
1c
ee
12
f8
eb
0b
ee
ec
02
f6
19
fd
26
09
06
f4
18
fc
0c
03
12
04
0d
09
ef
0a
fe
0b
e3
03
ea
01
fa
ee
f0
f6
ef
04
0f
04
f2
13
f0
fe
fc
0c
09
f7
03
f4
29
00
03
0c
1a
04
eb
05
e7
f3
0e
f2
e9
fb
ea
17
fe
0d
0e
f1
1c
fb
ed
f9
f6
10
fd
04
fb
06
fc
0a
1c
10
f7
00
0f
0b
f0
f2
eb
00
f5
04
e9
16
f7
ea
0a
0f
0d
07
fd
02
e9
0f
e6
08
f8
f5
1f
f1
05
06
ec
04
ea
dc
f5
f3
0d
fd
fc
f1
25
0b
f9
e0
fb
f8
ec
07
f0
f8
f9
fd
fe
03
00
ee
e6
f9
f8
1d
02
0a
ff
2d
02
f5
f1
fb
fb
eb
14
ea
15
e4
ed
f8
ea
f6
28
00
13
ef
02
00
0c
fe
fb
06
fc
e9
04
fe
04
20
0e
05
0b
11
fd
ee
1f
03
14
03
f7
ec
1d
e6
03
de
f1
e7
ff
f7
ed
07
fd
f2
0e
09
ee
e1
f1
02
ef
01
e6
d8
06
04
e0
0d
ed
00
f0
e2
f4
fe
26
d9
f8
08
fe
fd
fd
f5
02
23
20
f9
2a
ee
f9
f2
fc
0f
26
00
09
f7
12
11
0c
f5
03
02
09
ff
fa
0f
1b
17
07
ef
11
ff
fd
04
04
09
f9
f9
0f
f0
0d
f5
da
04
0c
fc
f2
0a
14
fe
05
ff
08
e6
0d
0b
fa
18
f1
ec
f5
09
0d
11
cd
f0
09
05
ff
08
f5
0b
09
0f
fc
fb
f5
01
0c
09
ec
02
14
ff
ff
db
f5
0d
fb
06
f6
e2
fe
06
07
06
fe
f9
14
fb
ee
03
0a
16
14
08
fd
07
ff
02
04
1d
f1
fe
1b
fd
ed
13
e9
01
f0
f0
01
fd
f2
f9
0a
f6
fc
1c
fa
f8
f1
08
04
f6
f7
0a
04
ee
08
f9
ec
e3
f0
e6
ea
10
0c
f9
fa
0e
03
e7
ea
f4
e7
ff
e4
ff
08
09
0a
07
ef
f8
05
11
f4
03
0f
05
f4
f6
06
11
fb
10
10
fb
fa
f6
11
04
00
f8
f5
13
05
04
f5
f7
ff
11
0b
09
02
f8
ef
f0
fc
e9
ee
fd
fa
0d
d5
00
f2
0a
ec
fb
fb
18
07
f1
01
01
0a
00
07
fd
f0
f2
f0
0a
07
fb
fd
fe
fd
05
16
f7
07
10
f6
03
fb
0b
01
07
f1
12
0c
16
f8
e5
0d
f0
00
28
0a
0d
f7
fc
f4
ec
ef
05
10
e6
0d
08
ee
f6
f3
07
fd
f9
f0
1f
e8
e7
f3
fe
0c
f5
f2
fd
13
07
fa
fe
f8
f6
0f
0b
00
08
e5
f7
eb
ef
07
09
fe
ff
cd
17
f8
02
02
1f
01
f1
f2
fb
0d
d5
03
f5
1b
f8
e0
d6
f9
fe
08
0b
d0
03
f1
0a
10
f5
0f
10
04
f4
1e
11
07
03
09
00
11
d5
09
ff
06
c8
0f
ee
13
f8
1d
dd
fa
fb
0d
e1
fd
05
ef
f0
09
ef
f5
09
1a
f7
df
f5
f7
f3
d5
f1
fe
13
03
06
0f
1d
00
f4
fb
ef
15
e2
fa
0c
fc
ed
fd
fb
fd
05
0c
05
0a
03
00
ef
f5
09
18
e3
fd
f6
f1
00
c6
10
d3
f8
1f
f2
2c
26
fa
ec
fc
0a
eb
08
0a
f3
f3
08
05
09
d5
fb
e1
06
bb
22
08
ec
f9
2e
e6
04
ef
fe
fc
c1
1c
02
19
e8
ee
09
f1
ea
20
f8
c8
0e
04
f1
11
f9
06
f8
fe
de
0e
0e
05
2e
03
e8
0f
f0
e9
fe
31
c1
33
fd
e5
f1
2a
cc
0b
00
0d
dd
ee
07
ef
f4
f3
f9
05
ef
16
eb
da
11
f5
f1
dc
e0
fb
ec
ee
f0
fd
28
ed
f3
00
fb
14
c9
ed
f7
05
0d
fc
f2
f7
23
21
f0
1c
f3
04
e6
f7
f0
1a
cf
06
d5
12
29
c6
0a
d8
0d
25
00
00
f4
0b
fd
fb
f9
f5
08
0e
00
03
f3
0e
10
f7
09
fb
03
07
08
06
ef
0e
fc
f8
03
f4
f0
f3
00
05
fe
10
0e
05
0c
f6
f0
09
05
01
fb
01
ef
0c
f1
fa
fd
07
f0
f2
ef
f5
08
01
0a
f0
f4
ee
f1
08
02
f2
f8
f7
f8
08
fa
11
0e
11
ff
0d
02
01
f4
07
0f
10
f5
0b
06
f0
0e
01
fd
f4
f3
f4
0c
f3
04
0d
07
ef
04
0e
00
f3
01
f5
0c
f2
06
06
0b
f4
f7
10
07
07
f9
08
f9
f7
0a
f8
0f
ef
ee
0d
12
fb
0c
fe
ef
fa
f2
0e
0f
08
e1
03
ec
f3
f4
14
12
de
07
f9
08
db
0f
f1
02
e8
15
21
08
f6
f4
f3
0a
f0
e5
fd
e9
fa
f4
fc
04
e8
f7
f9
09
f9
fe
f5
f9
f3
0a
fe
f0
10
fb
fd
fa
0e
03
ea
0b
26
ef
f1
0a
ef
f5
11
eb
10
f0
fa
f0
14
de
0f
f5
0a
f2
f3
fd
fc
00
ec
00
0a
f2
ff
f6
f9
02
fb
fb
e3
fb
ff
fb
f3
00
01
14
ee
f6
0d
f9
0e
d3
0e
f3
f2
0a
f6
0c
0b
12
16
08
0c
04
09
f3
02
f6
fa
f6
08
d1
05
0d
03
f2
e5
f1
01
12
0b
04
07
09
0f
0c
f6
0c
0c
00
fd
03
00
01
01
01
17
04
e1
fd
fa
ea
f4
f3
00
fa
fb
0a
07
ea
0a
08
04
06
f9
fb
07
f7
0c
06
e8
04
f4
ef
f3
fd
ef
07
fd
0d
f7
fc
11
f6
03
f2
0f
ec
0d
f2
f6
f3
f2
ed
ff
f9
f4
f1
04
04
0a
04
00
fd
01
00
00
f4
0d
f9
fb
ef
f8
fb
f6
fe
e4
09
00
f9
fd
f4
f7
0c
fa
fc
f2
ff
ef
04
06
fc
f4
ed
fe
03
07
08
f5
0b
ee
06
fc
e1
0b
00
0c
f6
ef
f5
01
f6
e8
06
fb
f0
09
03
19
01
ee
ec
01
f8
09
f5
01
ee
06
03
08
10
ec
06
f5
f7
1c
00
fb
fe
f2
00
00
ff
f7
08
02
12
1d
f0
0a
fe
04
0a
f2
fb
f9
f8
03
06
0a
f0
f8
15
f4
ee
0e
02
e7
0e
f3
05
dd
f6
f2
f7
f3
e7
f7
19
02
f6
05
0e
03
1b
0e
fc
02
ee
ed
fc
ff
04
fe
f3
0b
ea
f3
ef
ff
ff
0f
09
ff
fc
03
0a
f4
0a
06
13
f1
04
f8
fe
f7
08
0d
01
04
08
f5
02
10
09
fd
eb
ff
fc
08
0b
e4
fd
07
f2
0b
14
f2
fa
00
f0
fd
07
05
18
ec
e9
15
07
fa
f6
0f
f3
f2
fe
f8
ff
08
02
13
0a
09
07
f5
e7
05
08
fe
07
13
f4
0d
0f
f5
05
10
15
f3
05
ed
eb
fa
ff
eb
ff
10
fa
f0
f8
f7
03
07
04
ee
f8
ed
f8
f2
f9
22
ef
ff
0b
0f
11
f7
fe
fd
02
11
fa
09
0b
00
09
fc
17
06
ec
0d
0d
fc
f4
09
0f
0f
08
0b
07
01
01
1b
15
ff
fd
fb
0a
02
0a
08
18
08
f3
fb
0f
f1
f1
09
f2
f6
06
f0
fe
ef
15
f7
f0
f0
ed
13
01
ea
20
fa
ea
ee
06
e4
fd
13
01
0a
ed
1b
16
f3
f6
02
f9
08
fc
0d
ef
e5
f0
f0
08
dc
ec
ef
0e
d7
23
f7
08
06
1f
fa
06
f1
f4
02
c8
2c
ee
15
f4
e0
ec
fb
f0
18
f6
d1
11
f6
05
f1
fb
04
ef
13
00
2f
fb
f2
1f
04
fa
0a
e4
ec
ee
20
d4
1d
06
f2
03
2d
c9
0a
e0
fe
e5
09
ee
e8
07
f7
04
06
ee
f6
02
dd
f1
00
f2
da
f0
eb
0b
f6
09
fc
2b
02
ee
fe
0a
23
db
04
f4
ee
f5
f2
f7
f0
27
2a
fa
19
0d
f4
ee
fd
ff
21
e2
f8
c0
f4
12
d9
fb
e8
f5
29
31
ce
c5
2b
0c
ec
fb
fb
08
13
0e
38
04
02
f6
2f
f1
27
fc
25
c9
0a
11
04
cb
20
fd
f4
20
f2
29
c9
1d
d3
1d
30
05
fa
ed
ec
ff
20
0a
00
f9
f9
26
07
02
01
07
ef
09
fc
d5
01
09
f9
1d
2b
22
c3
28
c9
f8
16
f2
d3
56
f8
19
f2
0e
04
f9
2b
f6
f1
f2
f3
12
1f
15
30
f1
05
20
43
30
f2
04
09
f2
f6
05
f8
15
05
0c
ca
1e
f5
0e
ed
f4
fa
15
0f
d7
ca
22
d3
f7
ec
22
1b
fa
e2
19
fb
34
ef
ba
23
fe
39
f3
df
07
11
15
fb
09
09
0b
07
10
09
f7
e3
f2
0c
0d
09
09
fd
0e
df
16
09
ec
fd
15
0d
ff
f8
e9
ef
f1
1a
ec
00
02
df
e8
00
fe
0f
fd
e4
f1
04
ed
f6
ed
f2
fb
fa
fe
f9
0c
fa
08
fd
fa
02
e5
f9
02
0f
e7
0b
fa
07
01
0e
e7
fe
08
00
ff
02
f6
f6
ee
fd
03
f5
f9
fe
0b
e1
fc
f6
f1
e6
f7
f9
ee
f8
fe
0d
0f
0a
ef
06
f1
f6
df
01
f4
fb
08
0b
05
0d
fb
fe
f1
01
f0
fc
fc
fa
f3
0f
01
0c
cf
ec
fc
d5
05
fc
10
0e
00
05
04
01
e0
f9
0a
fb
ed
0a
03
02
f4
ff
0e
0c
0c
10
f6
02
0b
f1
02
01
02
07
fc
06
ee
fd
05
06
ef
10
02
1a
0c
f0
f8
f8
07
10
07
fa
fb
f4
f9
f4
fd
f1
ee
13
0b
06
19
03
0c
ff
07
f6
ed
04
f3
08
04
0c
f8
21
f3
ff
ff
0e
f8
02
ff
fe
07
f6
02
0c
f2
fc
02
07
05
ff
ff
05
ef
0d
00
1c
09
f1
06
0a
0a
00
ed
00
ec
f2
f9
f9
f1
04
0f
f0
03
07
fc
0c
08
0e
f3
03
03
04
01
ff
04
0c
0b
f4
0c
ff
f1
12
08
ed
dd
f5
f7
e7
f3
0c
0a
f1
07
1b
09
ef
0e
08
f0
19
ff
24
fd
08
11
f5
03
fd
f7
0f
29
01
17
f1
fd
e3
f5
27
29
06
08
04
fd
1c
f9
0b
f3
03
f5
03
fd
12
eb
e7
07
f6
e7
f5
f6
0d
16
0b
ed
e4
07
08
f1
03
0f
d9
35
f2
e9
07
ed
fc
0b
10
0b
ed
06
f0
12
1e
f1
0d
00
06
04
1d
04
02
01
fb
07
f7
fd
f6
19
02
0e
e1
2e
fe
10
10
ed
f0
eb
f1
e8
dd
0c
f0
10
f8
15
f5
f8
ed
06
0f
3f
0d
e4
17
09
f6
fc
e9
fb
00
19
0c
07
0a
05
fc
09
ed
00
06
01
0a
fe
06
08
02
ed
e5
f6
fa
f8
f8
fb
06
06
ef
e5
00
ec
ff
0b
07
f9
f7
ef
0d
f0
0b
0e
e5
0b
f4
0e
fa
0e
f8
05
09
15
09
f6
0d
e7
16
f3
f3
f1
18
01
06
ef
00
09
00
00
f3
da
00
02
f8
08
0d
02
f7
06
0b
01
f1
02
fa
13
ec
f6
fe
15
ff
03
e9
f0
15
00
f2
03
f0
fa
ef
ec
f7
e3
f2
02
fb
0c
ee
0c
01
05
f7
0c
ee
f0
f4
e8
07
f4
15
e0
f9
f0
00
0a
e0
f4
07
ee
09
f6
06
f7
10
1e
0d
f8
ff
ef
f0
0b
fb
ed
fb
0f
f9
f3
12
0b
fc
ef
16
0c
f5
ff
fc
05
fc
03
f6
fa
f7
0b
01
09
fa
ee
f7
0e
06
f6
e3
f1
00
f8
f6
14
05
f8
10
05
fe
fc
09
f1
09
01
09
03
f8
f6
eb
ee
fd
f8
00
01
0a
f4
fc
01
f7
20
fc
ec
0e
fc
f5
fb
fd
14
0c
08
eb
f0
08
18
02
04
0c
f8
16
06
0a
f9
e8
0a
11
01
f0
ee
02
fe
00
09
fe
06
08
e9
ec
1c
fe
0f
03
f3
16
ea
04
f3
eb
fa
08
ff
ec
fa
03
0d
e5
07
1d
1b
e6
db
f7
0a
e7
f7
fd
04
d5
03
fc
f2
e6
fe
e5
fc
ee
29
ef
02
fa
38
f6
0b
fc
eb
08
e0
0e
fb
06
f2
d0
fc
09
0b
31
f4
d3
0a
ef
fb
11
e5
f4
f6
f7
f3
37
fa
ef
34
f9
e7
0f
d5
f3
de
22
d1
34
f2
f3
0a
24
c1
f9
fa
08
e2
ef
07
dc
f4
05
f2
f3
01
fc
f0
d0
0f
00
ed
d8
e1
0a
ff
e4
11
f6
f7
03
ef
08
f3
09
f0
f2
ff
fc
06
f9
f8
f2
14
28
df
13
00
0c
ef
da
0b
13
e3
05
eb
ff
15
d9
fb
e9
0b
0a
14
fb
11
19
26
11
ec
12
f9
0c
04
f9
04
f0
f7
14
00
1e
06
fd
ec
14
05
02
ec
fc
f5
fe
10
f9
f8
f4
10
f0
08
e9
fc
f4
f0
f8
f1
f9
fa
f2
f3
f6
12
f0
ee
eb
05
10
f8
f9
f7
0d
f9
f0
06
fa
0a
0a
11
f0
fd
fb
0a
f1
08
03
08
f2
1b
f5
f4
0b
fb
fc
fc
fe
1a
05
12
0c
f6
f0
0d
0f
07
fd
09
01
f5
ee
09
f1
19
ed
f1
fb
02
0b
f0
fa
f7
0b
1e
f9
0a
00
12
e5
ff
f6
e9
18
0f
ff
fa
ee
18
f3
fb
0c
02
04
0a
f7
f6
09
ff
e9
f2
0a
ef
ff
00
06
f6
e1
05
01
0e
f4
0d
eb
08
ca
1c
05
07
08
fe
ee
f9
08
f3
f4
dd
0f
ea
0e
f9
f6
ee
07
03
09
0e
e0
f0
0b
f0
0a
f6
fc
f3
f8
f0
03
fa
ec
0b
fc
1a
f1
e8
f8
f9
1d
d7
07
0c
f9
05
13
e9
11
08
0d
ee
f3
02
dc
f1
09
f8
01
e6
17
e4
df
fd
0f
ef
e7
eb
fa
0a
0b
f7
0b
1d
ed
03
f1
fc
0b
df
fd
f2
0f
ff
07
ec
12
0f
12
ef
0d
f8
f8
fb
f5
f1
fc
d9
f4
dd
f7
1c
e9
01
ef
0b
ff
f8
0d
13
fa
ff
0c
06
ee
f4
ec
fa
0f
fc
fa
09
f6
f9
0c
f8
fc
0e
fc
f1
fe
f5
f6
fe
09
09
0d
fb
fb
02
0e
f2
01
0d
fc
fb
f2
ed
0e
01
f4
f9
0f
f0
f2
06
f5
05
fe
00
ff
0d
fe
09
06
0d
03
ee
09
fb
fa
f2
ea
fa
f7
01
07
0a
f7
fd
ef
0d
fb
f8
fd
0b
05
f5
0c
f9
00
06
04
ff
ed
fb
f8
f1
f1
f4
03
f2
0d
f7
ec
07
0a
10
f9
07
00
07
0a
03
ff
13
04
05
07
f0
f1
09
01
02
fb
00
ef
06
09
10
05
00
ee
fa
ff
03
0e
16
fb
c8
eb
01
f2
f1
fb
f3
fe
fa
ff
0e
f2
08
e7
00
fd
20
f6
eb
f4
33
e6
f0
f1
e5
ef
fc
2c
ec
1f
ee
f5
fa
01
f7
25
0a
fd
07
f4
11
f4
ed
f1
e9
f4
e2
00
fc
0a
2b
f2
f7
f3
fc
f7
f7
0f
0c
26
04
ed
f0
15
e5
f0
d7
f4
ed
fa
f9
f2
f0
f5
00
ee
04
e4
00
03
09
f2
e0
01
ec
08
fc
f7
f9
f1
1c
10
f7
fd
02
18
e3
fd
f7
05
02
fa
f9
ec
17
20
eb
24
0b
02
00
df
09
0f
00
07
e7
12
16
15
0b
ef
f0
1a
12
00
f3
f2
09
fc
f5
0a
ff
00
02
08
f3
08
08
f7
09
f1
04
05
08
ef
f0
0b
ea
05
ef
02
07
fa
0b
0c
04
f3
02
00
f4
f3
f6
fe
fc
fe
f4
03
05
07
0d
03
fc
04
03
09
06
f4
f4
0c
f0
f4
f4
f1
16
0b
f8
03
04
f1
02
f6
f6
fd
0c
05
ec
06
04
fc
0f
0c
f9
0e
f3
ee
0f
f0
f2
fc
0f
03
f2
00
f4
fe
05
04
f8
f5
ee
fa
06
ff
05
10
fd
0c
f7
fe
f7
05
fe
01
11
f2
ee
f4
03
05
05
fb
f8
f0
f1
fe
ef
0e
f0
06
f8
0a
de
2c
28
f1
d6
dc
fc
e1
ef
f1
fc
f9
05
ee
03
ce
fc
dc
0a
ee
30
dd
f2
ed
42
f1
f3
04
ee
f5
fc
2a
f7
1f
f2
e7
02
05
04
3a
fe
f6
04
f2
10
05
d2
0c
fb
ee
e9
2f
0e
