5d
ec
21
21
2a
15
af
ed
2d
c0
21
e8
f5
0f
24
cf
4a
4a
3f
b5
f8
f7
14
cd
f0
0d
5e
3d
26
ca
32
81
fb
06
cc
e1
51
ed
c1
01
27
c9
d9
61
e5
2d
12
92
e2
aa
de
29
30
37
1f
9b
08
b3
34
12
3e
f2
13
cc
01
e3
0c
32
db
1b
0b
18
c4
e6
ff
48
24
1b
0b
e9
1d
c1
30
cf
3c
33
44
e6
47
90
fb
14
b5
d7
44
39
47
02
c7
fd
39
d9
cd
41
1d
4f
f4
a3
c9
c5
4a
c6
64
04
59
50
f7
00
da
31
d4
18
13
dc
34
ea
15
88
dc
eb
b9
c6
13
b6
f4
02
37
54
32
f8
d1
08
e2
49
13
48
46
e7
b7
08
a0
d1
d9
5a
df
4e
e6
15
39
e4
b9
b3
20
c1
39
c1
11
da
1c
42
b0
10
f7
ff
23
32
f6
c5
dd
3b
0d
fc
50
c3
22
18
e6
45
bd
c9
3c
f2
10
4c
3f
11
ba
5e
4b
0b
b5
2b
44
d0
3a
c5
cb
fd
a2
d0
b4
f5
a6
2f
cb
3f
e0
2a
c4
98
27
da
b4
55
b3
ee
25
33
ad
4a
2d
cf
35
c4
30
0d
1b
23
81
46
a9
61
d6
1b
f5
f9
b6
4b
30
f1
b1
bf
fc
d1
16
e2
f1
22
cf
45
bb
da
2e
29
05
cb
e4
cd
e0
34
94
36
d8
04
d2
ea
30
e2
07
f6
25
f4
cf
c5
e6
0c
a9
52
